{
  "version": "1.0",
  "truncation": null,
  "padding": null,
  "added_tokens": [
    {
      "id": 0,
      "content": "<unk>",
      "single_word": false,
      "lstrip": false,
      "rstrip": false,
      "normalized": false,
      "special": true
    },
    {
      "id": 1,
      "content": "<bos>",
      "single_word": false,
      "lstrip": false,
      "rstrip": false,
      "normalized": false,
      "special": true
    },
    {
      "id": 2,
      "content": "<eos>",
      "single_word": false,
      "lstrip": false,
      "rstrip": false,
      "normalized": false,
      "special": true
    },
    {
      "id": 3,
      "content": "<pad>",
      "single_word": false,
      "lstrip": false,
      "rstrip": false,
      "normalized": false,
      "special": true
    }
  ],
  "normalizer": {
    "type": "Sequence",
    "normalizers": [
      {
        "type": "NFKC"
      }
    ]
  },
  "pre_tokenizer": {
    "type": "ByteLevel",
    "add_prefix_space": false,
    "trim_offsets": true,
    "use_regex": true
  },
  "post_processor": {
    "type": "ByteLevel",
    "add_prefix_space": true,
    "trim_offsets": true,
    "use_regex": true
  },
  "decoder": {
    "type": "ByteLevel",
    "add_prefix_space": true,
    "trim_offsets": true,
    "use_regex": true
  },
  "model": {
    "type": "BPE",
    "dropout": null,
    "unk_token": "<unk>",
    "continuing_subword_prefix": null,
    "end_of_word_suffix": null,
    "fuse_unk": false,
    "byte_fallback": false,
    "ignore_merges": false,
    "vocab": {
      "<unk>": 0,
      "<bos>": 1,
      "<eos>": 2,
      "<pad>": 3,
      "!": 4,
      "\"": 5,
      "#": 6,
      "$": 7,
      "%": 8,
      "&": 9,
      "'": 10,
      "(": 11,
      ")": 12,
      "*": 13,
      "+": 14,
      ",": 15,
      "-": 16,
      ".": 17,
      "/": 18,
      "0": 19,
      "1": 20,
      "2": 21,
      "3": 22,
      "4": 23,
      "5": 24,
      "6": 25,
      "7": 26,
      "8": 27,
      "9": 28,
      ":": 29,
      ";": 30,
      "<": 31,
      "=": 32,
      ">": 33,
      "?": 34,
      "@": 35,
      "A": 36,
      "B": 37,
      "C": 38,
      "D": 39,
      "E": 40,
      "F": 41,
      "G": 42,
      "H": 43,
      "I": 44,
      "J": 45,
      "K": 46,
      "L": 47,
      "M": 48,
      "N": 49,
      "O": 50,
      "P": 51,
      "Q": 52,
      "R": 53,
      "S": 54,
      "T": 55,
      "U": 56,
      "V": 57,
      "W": 58,
      "X": 59,
      "Y": 60,
      "Z": 61,
      "[": 62,
      "]": 63,
      "_": 64,
      "`": 65,
      "a": 66,
      "b": 67,
      "c": 68,
      "d": 69,
      "e": 70,
      "f": 71,
      "g": 72,
      "h": 73,
      "i": 74,
      "j": 75,
      "k": 76,
      "l": 77,
      "m": 78,
      "n": 79,
      "o": 80,
      "p": 81,
      "q": 82,
      "r": 83,
      "s": 84,
      "t": 85,
      "u": 86,
      "v": 87,
      "w": 88,
      "x": 89,
      "y": 90,
      "z": 91,
      "|": 92,
      "~": 93,
      "¡": 94,
      "¢": 95,
      "£": 96,
      "¤": 97,
      "¥": 98,
      "¦": 99,
      "§": 100,
      "¨": 101,
      "©": 102,
      "ª": 103,
      "«": 104,
      "¬": 105,
      "®": 106,
      "¯": 107,
      "°": 108,
      "±": 109,
      "²": 110,
      "³": 111,
      "´": 112,
      "µ": 113,
      "¶": 114,
      "·": 115,
      "¸": 116,
      "¹": 117,
      "º": 118,
      "»": 119,
      "¼": 120,
      "½": 121,
      "¾": 122,
      "¿": 123,
      "Â": 124,
      "Ã": 125,
      "Ä": 126,
      "Å": 127,
      "Ç": 128,
      "È": 129,
      "Ê": 130,
      "Ì": 131,
      "Î": 132,
      "Ï": 133,
      "Ð": 134,
      "Ñ": 135,
      "á": 136,
      "â": 137,
      "ã": 138,
      "ä": 139,
      "å": 140,
      "æ": 141,
      "ç": 142,
      "é": 143,
      "ï": 144,
      "ð": 145,
      "Ċ": 146,
      "Ġ": 147,
      "Ģ": 148,
      "ģ": 149,
      "Ĥ": 150,
      "ĥ": 151,
      "Ħ": 152,
      "ħ": 153,
      "Ĩ": 154,
      "ĩ": 155,
      "Ī": 156,
      "ī": 157,
      "Ĭ": 158,
      "ĭ": 159,
      "Į": 160,
      "į": 161,
      "İ": 162,
      "ı": 163,
      "Ĳ": 164,
      "ĳ": 165,
      "Ĵ": 166,
      "ĵ": 167,
      "Ķ": 168,
      "ķ": 169,
      "ĸ": 170,
      "Ĺ": 171,
      "ĺ": 172,
      "Ļ": 173,
      "ļ": 174,
      "Ľ": 175,
      "ľ": 176,
      "Ŀ": 177,
      "ŀ": 178,
      "Ł": 179,
      "ł": 180,
      "Ń": 181,
      "Ġt": 182,
      "Ġa": 183,
      "in": 184,
      "he": 185,
      "re": 186,
      "on": 187,
      "Ġthe": 188,
      "er": 189,
      "at": 190,
      "Ġo": 191,
      "Ġs": 192,
      "Ġc": 193,
      "en": 194,
      "es": 195,
      "an": 196,
      "it": 197,
      "is": 198,
      "Ġw": 199,
      "Ġp": 200,
      "Ġan": 201,
      "or": 202,
      "ing": 203,
      "al": 204,
      "Ġf": 205,
      "Ġb": 206,
      "ou": 207,
      "Ġin": 208,
      "ed": 209,
      "Ġof": 210,
      "Ġand": 211,
      "Ġm": 212,
      "Ġto": 213,
      "ic": 214,
      "ion": 215,
      "Ġd": 216,
      "ar": 217,
      "le": 218,
      "ro": 219,
      "ent": 220,
      "as": 221,
      "Ġh": 222,
      "Ġth": 223,
      "ct": 224,
      "Ġe": 225,
      "Ġre": 226,
      "il": 227,
      "ve": 228,
      "om": 229,
      "us": 230,
      "âĢ": 231,
      "et": 232,
      "Ġl": 233,
      "Ġn": 234,
      "Ġg": 235,
      "Ġis": 236,
      "ly": 237,
      "ation": 238,
      "id": 239,
      "ce": 240,
      "im": 241,
      "ut": 242,
      "ol": 243,
      "Ġbe": 244,
      "Ġy": 245,
      "ĠT": 246,
      "ow": 247,
      "st": 248,
      "Ġfor": 249,
      "ur": 250,
      "ch": 251,
      "ot": 252,
      "ig": 253,
      "Ġyou": 254,
      "ul": 255,
      "ra": 256,
      "Ġthat": 257,
      "Ġon": 258,
      "ĠA": 259,
      "se": 260,
      "ver": 261,
      "Ġpro": 262,
      "un": 263,
      "Ġst": 264,
      "ir": 265,
      "ay": 266,
      "ĠI": 267,
      "Ġare": 268,
      "ĠS": 269,
      "Ġas": 270,
      "Ġcon": 271,
      "Ġor": 272,
      "âĢĻ": 273,
      "ith": 274,
      "el": 275,
      "am": 276,
      "if": 277,
      "Ġit": 278,
      "Ġhe": 279,
      "ment": 280,
      "Ġwith": 281,
      "od": 282,
      "ers": 283,
      "Ġcan": 284,
      "ĠC": 285,
      "ate": 286,
      "Ġal": 287,
      "ad": 288,
      "ess": 289,
      "ter": 290,
      "Ġde": 291,
      "ab": 292,
      "ge": 293,
      "her": 294,
      "Ġwh": 295,
      "ies": 296,
      "th": 297,
      "ect": 298,
      "ant": 299,
      "ity": 300,
      "Ġex": 301,
      "ĠP": 302,
      "res": 303,
      "ĠThe": 304,
      "pp": 305,
      "ill": 306,
      "ist": 307,
      "ke": 308,
      "ain": 309,
      "op": 310,
      "Ġcom": 311,
      "Ġv": 312,
      "ive": 313,
      "Ġsu": 314,
      "ore": 315,
      "Ġch": 316,
      "Ġus": 317,
      "qu": 318,
      "iv": 319,
      "Ġwe": 320,
      "ĠM": 321,
      "est": 322,
      "ĠB": 323,
      "oun": 324,
      "ial": 325,
      "os": 326,
      "Ġen": 327,
      "ĠW": 328,
      "ort": 329,
      "um": 330,
      "rom": 331,
      "Ġne": 332,
      "and": 333,
      "ren": 334,
      "Ġha": 335,
      "em": 336,
      "ld": 337,
      "ĠH": 338,
      "ac": 339,
      "oc": 340,
      "ib": 341,
      "Ġby": 342,
      "ure": 343,
      "Ġr": 344,
      "igh": 345,
      "ical": 346,
      "Ġyour": 347,
      "Ġ(": 348,
      "Ġfrom": 349,
      "Ġim": 350,
      "Ġse": 351,
      "Ġle": 352,
      "Ġpl": 353,
      "ĠE": 354,
      "pt": 355,
      "Ġat": 356,
      "ĠR": 357,
      "Ġhave": 358,
      "ud": 359,
      "ĠD": 360,
      "Ġsh": 361,
      "Ġun": 362,
      "ĠâĢ": 363,
      "ust": 364,
      "Ġsp": 365,
      "art": 366,
      "ions": 367,
      "per": 368,
      "ĠF": 369,
      "Ġ1": 370,
      "Ġma": 371,
      "du": 372,
      "Ġwas": 373,
      "og": 374,
      "Ġthis": 375,
      "ine": 376,
      "Ġnot": 377,
      "Ġimp": 378,
      "ome": 379,
      "Ġab": 380,
      "Ġtheir": 381,
      "ide": 382,
      "Ġint": 383,
      "all": 384,
      "ther": 385,
      "ff": 386,
      "ations": 387,
      "iz": 388,
      "out": 389,
      "red": 390,
      "our": 391,
      "ight": 392,
      "Ġwor": 393,
      "ated": 394,
      "Ġdis": 395,
      "Ġad": 396,
      "pl": 397,
      "act": 398,
      "ell": 399,
      "ult": 400,
      "The": 401,
      "ich": 402,
      "ance": 403,
      "gh": 404,
      "Ġinc": 405,
      "ign": 406,
      "ĠG": 407,
      "ĠIn": 408,
      "able": 409,
      "ost": 410,
      "age": 411,
      "cc": 412,
      "orm": 413,
      "ag": 414,
      "ous": 415,
      "ĠN": 416,
      "Ġcont": 417,
      "ĠO": 418,
      "Ġall": 419,
      "ould": 420,
      "Ġres": 421,
      "ans": 422,
      "Ġwill": 423,
      "vel": 424,
      "der": 425,
      "Ġwhe": 426,
      "ough": 427,
      "ard": 428,
      "ip": 429,
      "king": 430,
      "ound": 431,
      "Ġmore": 432,
      "ĠL": 433,
      "ood": 434,
      "ec": 435,
      "ĠTh": 436,
      "Ġcl": 437,
      "reat": 438,
      "ast": 439,
      "Ġthey": 440,
      "Ġcomp": 441,
      "so": 442,
      "Ġwhich": 443,
      "Ġk": 444,
      "ru": 445,
      "âĢĿ": 446,
      "Ġ2": 447,
      "Ġar": 448,
      "Ġhas": 449,
      "Ġgen": 450,
      "ild": 451,
      "Ġdo": 452,
      "end": 453,
      "ĠU": 454,
      "fe": 455,
      "Ġapp": 456,
      "ia": 457,
      "ual": 458,
      "ks": 459,
      "ong": 460,
      "ry": 461,
      "Ġman": 462,
      "Ġother": 463,
      "ence": 464,
      "Ġalso": 465,
      "ri": 466,
      "ass": 467,
      "Ġte": 468,
      "ress": 469,
      "ition": 470,
      "ction": 471,
      "alth": 472,
      "Ġme": 473,
      "Ġbut": 474,
      "form": 475,
      "ater": 476,
      "ear": 477,
      "Ġca": 478,
      "up": 479,
      "ame": 480,
      "ase": 481,
      "ep": 482,
      "Ġthem": 483,
      "ces": 484,
      "ire": 485,
      "Ġper": 486,
      "ary": 487,
      "ice": 488,
      "Ġout": 489,
      "ĠâĢľ": 490,
      "ents": 491,
      "Ġso": 492,
      "Ġsc": 493,
      "Ġone": 494,
      "av": 495,
      "ach": 496,
      "rent": 497,
      "Ġj": 498,
      "Ġind": 499,
      "ĠIt": 500,
      "rit": 501,
      "ĠThis": 502,
      "ose": 503,
      "ount": 504,
      "ind": 505,
      "lp": 506,
      "ors": 507,
      "ime": 508,
      "Ġuse": 509,
      "Ġsy": 510,
      "Ġneed": 511,
      "Ġabout": 512,
      "ory": 513,
      "ike": 514,
      "Ġhelp": 515,
      "ie": 516,
      "ace": 517,
      "Ġpart": 518,
      "Ġtr": 519,
      "ue": 520,
      "Ġcomm": 521,
      "ile": 522,
      "Ġem": 523,
      "etw": 524,
      "ens": 525,
      "ities": 526,
      "ric": 527,
      "Ġmay": 528,
      "Ġev": 529,
      "Ġacc": 530,
      "ments": 531,
      "Ġour": 532,
      "Ġtra": 533,
      "Ġpe": 534,
      "ific": 535,
      "Ġover": 536,
      "Ġits": 537,
      "low": 538,
      "Ġhow": 539,
      "ack": 540,
      "Ġhealth": 541,
      "Ġthese": 542,
      "now": 543,
      "olog": 544,
      "Ġup": 545,
      "Ġinto": 546,
      "one": 547,
      "velop": 548,
      "very": 549,
      "lud": 550,
      "ap": 551,
      "Ġsuch": 552,
      "Ġpre": 553,
      "Ġfe": 554,
      "Ġcons": 555,
      "Ġdif": 556,
      "ious": 557,
      "rough": 558,
      "Ġsome": 559,
      "lic": 560,
      "Ġta": 561,
      "00": 562,
      "row": 563,
      "oo": 564,
      "ings": 565,
      "use": 566,
      "ays": 567,
      "ating": 568,
      "Ġwhen": 569,
      "Ġgo": 570,
      "ang": 571,
      "ular": 572,
      "Ġsign": 573,
      "Ġwho": 574,
      "lect": 575,
      "ll": 576,
      "Ġlike": 577,
      "Ġqu": 578,
      "cess": 579,
      "Ġthere": 580,
      "Ġeff": 581,
      "Ġinclud": 582,
      "ord": 583,
      "Ġany": 584,
      "ally": 585,
      "te": 586,
      "Ġtime": 587,
      "Ġbec": 588,
      "tern": 589,
      "ople": 590,
      "Ġprov": 591,
      "ĠJ": 592,
      "ish": 593,
      "Ġcol": 594,
      "Ġunder": 595,
      "Ġro": 596,
      "iet": 597,
      "Ġprodu": 598,
      "Ġwere": 599,
      "ons": 600,
      "Ġchild": 601,
      "ian": 602,
      "Ġdevelop": 603,
      "Ġknow": 604,
      "ms": 605,
      "Ġrec": 606,
      "Ġrep": 607,
      "int": 608,
      "Ġsa": 609,
      "ys": 610,
      "ob": 611,
      "erv": 612,
      "Ġ|": 613,
      "ject": 614,
      "stem": 615,
      "Ġag": 616,
      "Ġdes": 617,
      "Ġpeople": 618,
      "ient": 619,
      "Ġact": 620,
      "Ġif": 621,
      "Ġadd": 622,
      "ree": 623,
      "Ġbl": 624,
      "ne": 625,
      "ful": 626,
      "ĠY": 627,
      "ced": 628,
      "its": 629,
      "Ġthrough": 630,
      "ple": 631,
      "ail": 632,
      "ning": 633,
      "Ġthan": 634,
      "ility": 635,
      "ite": 636,
      "ĠSt": 637,
      "Ġbeen": 638,
      "Ġmod": 639,
      "ove": 640,
      "ten": 641,
      "Ġnew": 642,
      "ph": 643,
      "Ġdiffe": 644,
      "Ġrel": 645,
      "Ġstud": 646,
      "yp": 647,
      "ub": 648,
      "Ġimport": 649,
      "are": 650,
      "les": 651,
      "Ġpers": 652,
      "Ġinv": 653,
      "Ġhis": 654,
      "Ġ20": 655,
      "vers": 656,
      "Ġmake": 657,
      "ics": 658,
      "Ġused": 659,
      "ower": 660,
      "chn": 661,
      "Ġspec": 662,
      "rib": 663,
      "pport": 664,
      "Ġgr": 665,
      "ber": 666,
      "ates": 667,
      "ak": 668,
      "ants": 669,
      "ov": 670,
      "ures": 671,
      "Ġpos": 672,
      "ond": 673,
      "ert": 674,
      "ased": 675,
      "Ġra": 676,
      "Ġwell": 677,
      "uring": 678,
      "Ġoff": 679,
      "ract": 680,
      "Ġmost": 681,
      "Ġwhat": 682,
      "Ġinf": 683,
      "In": 684,
      "ĠV": 685,
      "Ġass": 686,
      "ible": 687,
      "hen": 688,
      "Ġsystem": 689,
      "enc": 690,
      "Ġreg": 691,
      "ont": 692,
      "Ġyear": 693,
      "ential": 694,
      "oth": 695,
      "Ġpo": 696,
      "Ġvar": 697,
      "ĠK": 698,
      "Ġph": 699,
      "ĠCh": 700,
      "ĠAn": 701,
      "ative": 702,
      "Ġshould": 703,
      "Ġob": 704,
      "een": 705,
      "Ġonly": 706,
      "Ġam": 707,
      "Ġwork": 708,
      "erg": 709,
      "Ġac": 710,
      "ise": 711,
      "als": 712,
      "ife": 713,
      "Ġmany": 714,
      "Ġpr": 715,
      "Ġfun": 716,
      "ices": 717,
      "Ġtrans": 718,
      "Ġdec": 719,
      "Ġtw": 720,
      "Ġco": 721,
      "Ġdifferent": 722,
      "ern": 723,
      "Ġmet": 724,
      "ution": 725,
      "etween": 726,
      "Ġexp": 727,
      "Ġhigh": 728,
      ").": 729,
      "ange": 730,
      "Ġatt": 731,
      "Ġimportant": 732,
      "Ġpat": 733,
      "Ġresp": 734,
      "Ġtechn": 735,
      "ĠâĢĵ": 736,
      "wn": 737,
      "Ġcar": 738,
      "Ġdi": 739,
      "Ġrequ": 740,
      "Ġwhere": 741,
      "hed": 742,
      "iron": 743,
      "ience": 744,
      "Ġexper": 745,
      "uc": 746,
      "ata": 747,
      "Ġbetween": 748,
      "Ġrem": 749,
      "ere": 750,
      "own": 751,
      "ef": 752,
      "Ġke": 753,
      "Ġget": 754,
      "'s": 755,
      "ural": 756,
      "irst": 757,
      "Ġart": 758,
      "rop": 759,
      "Ġpol": 760,
      "old": 761,
      "iss": 762,
      "Ġno": 763,
      "be": 764,
      "ever": 765,
      "ĠAf": 766,
      "Ġwould": 767,
      "ĠUn": 768,
      "Ġpres": 769,
      "ists": 770,
      "Ġinform": 771,
      "Ġgener": 772,
      "gan": 773,
      "ically": 774,
      "Ġcre": 775,
      "ivid": 776,
      "Ġdet": 777,
      "ark": 778,
      "Ġeffect": 779,
      "Ġbu": 780,
      "oy": 781,
      "etic": 782,
      "xt": 783,
      "ational": 784,
      "Ġincre": 785,
      "Ġprocess": 786,
      "ins": 787,
      "ize": 788,
      "ting": 789,
      "Ġsm": 790,
      "Ġwater": 791,
      "ook": 792,
      "ality": 793,
      "Ġ3": 794,
      "hes": 795,
      "Ġredu": 796,
      "ues": 797,
      "Ġhad": 798,
      "Ġfood": 799,
      "Ġtwo": 800,
      "mer": 801,
      "Ġinst": 802,
      "Ġinter": 803,
      "ividual": 804,
      "stand": 805,
      "Ġent": 806,
      "vent": 807,
      "Ġtyp": 808,
      "uman": 809,
      "viron": 810,
      "Ġeven": 811,
      "Ġexam": 812,
      "Ġlead": 813,
      "Ġcount": 814,
      "fore": 815,
      "ick": 816,
      "ros": 817,
      "Ġchildren": 818,
      "Ġway": 819,
      "Ġdisc": 820,
      "Ġlife": 821,
      "Ġworld": 822,
      "ause": 823,
      "Ġ19": 824,
      "ool": 825,
      "ives": 826,
      "iqu": 827,
      "Ġsur": 828,
      "ork": 829,
      "Ġfl": 830,
      "Ġstr": 831,
      "ĠEn": 832,
      "ble": 833,
      "sel": 834,
      "Ġclass": 835,
      "ied": 836,
      "anc": 837,
      "ption": 838,
      "Ġgrow": 839,
      "ody": 840,
      "ident": 841,
      "ck": 842,
      "ature": 843,
      "Ġfirst": 844,
      "urn": 845,
      "erm": 846,
      "ection": 847,
      "Ġoften": 848,
      "Ġsupport": 849,
      "get": 850,
      "other": 851,
      "Ġimpro": 852,
      "Ġjust": 853,
      "Ġmus": 854,
      "Ġgl": 855,
      "ology": 856,
      "Ġval": 857,
      "Ġindividual": 858,
      "Ġher": 859,
      "Ġtest": 860,
      "Ġset": 861,
      "Ġsim": 862,
      "Ġeach": 863,
      "ade": 864,
      "Ġ5": 865,
      "ĠHow": 866,
      "Ġlear": 867,
      "Ġtreat": 868,
      "Ġfound": 869,
      "Ġins": 870,
      "Ġmed": 871,
      "ĠHe": 872,
      "ness": 873,
      "Ġboth": 874,
      "ily": 875,
      "hat": 876,
      "Ġsee": 877,
      "Ġinformation": 878,
      "Ġperson": 879,
      "Ġexpl": 880,
      "Ġbeing": 881,
      "ĠIf": 882,
      "Ġevery": 883,
      "Ġsec": 884,
      "ized": 885,
      "ergy": 886,
      "Ġlong": 887,
      "arch": 888,
      "Ġdise": 889,
      "vironment": 890,
      "ink": 891,
      "ited": 892,
      "ram": 893,
      "Ġpa": 894,
      "Ġmain": 895,
      "arge": 896,
      "ft": 897,
      "ases": 898,
      "ict": 899,
      "io": 900,
      "chool": 901,
      "fter": 902,
      "Ġear": 903,
      "Ġnum": 904,
      "Ġdep": 905,
      "ages": 906,
      "Ġcould": 907,
      "Ġallow": 908,
      "Ġprovid": 909,
      "Ġloc": 910,
      "..": 911,
      "uch": 912,
      "dition": 913,
      "Ġform": 914,
      "Ġext": 915,
      "Ġsol": 916,
      "ds": 917,
      "Ġthen": 918,
      "orn": 919,
      "arm": 920,
      "Ġeng": 921,
      "Ġdesign": 922,
      "ake": 923,
      "lement": 924,
      "Ġdef": 925,
      "omet": 926,
      ".âĢĿ": 927,
      "ines": 928,
      "uss": 929,
      "ually": 930,
      "Ġown": 931,
      "Ġsoc": 932,
      "Ġav": 933,
      "ĠWe": 934,
      "ency": 935,
      "ron": 936,
      "Ġfol": 937,
      "Ġadv": 938,
      "Ġdoes": 939,
      "Ġdata": 940,
      "ĠThese": 941,
      "Ġplay": 942,
      "Ġcommun": 943,
      "ps": 944,
      "Ġprot": 945,
      "Ġusing": 946,
      "Ġplant": 947,
      "hip": 948,
      "Ġed": 949,
      "Ġrese": 950,
      "imate": 951,
      "ĠBrit": 952,
      "ving": 953,
      "Ġenergy": 954,
      "Ġlevel": 955,
      "Ġposs": 956,
      "ĠAs": 957,
      "Ġyears": 958,
      "Fi": 959,
      "ĠRe": 960,
      "ries": 961,
      "Ġfact": 962,
      "Ġthose": 963,
      "Ġsk": 964,
      "Ġpower": 965,
      "Ġtake": 966,
      "ves": 967,
      "Ġpop": 968,
      "Ġpur": 969,
      "rap": 970,
      "ĠWi": 971,
      "Ġcell": 972,
      "ider": 973,
      "ify": 974,
      "ĠPl": 975,
      "Ġche": 976,
      "Ġorgan": 977,
      "Ġwhile": 978,
      "ĠThey": 979,
      "Ġcomple": 980,
      "Ġaut": 981,
      "reen": 982,
      "Ġben": 983,
      "Ġhuman": 984,
      "Ġpartic": 985,
      "ribut": 986,
      "Ġbody": 987,
      "cept": 988,
      "Ġprog": 989,
      "Ġconc": 990,
      "ands": 991,
      "Ġafter": 992,
      "Ġenvironment": 993,
      "ruct": 994,
      "Ġshe": 995,
      "Ġcle": 996,
      "Ġris": 997,
      "Ġunderstand": 998,
      "Ġmin": 999,
      "Ġref": 1000,
      "imes": 1001,
      "Ġbecause": 1002,
      "),": 1003,
      "ran": 1004,
      "ward": 1005,
      "Ġfin": 1006,
      "Ġnetw": 1007,
      "Ġread": 1008,
      "ected": 1009,
      "ty": 1010,
      "Ġaccess": 1011,
      "Ġduring": 1012,
      "Ġelect": 1013,
      "Ġgreat": 1014,
      "Th": 1015,
      "com": 1016,
      "Ġsub": 1017,
      "Ġdev": 1018,
      "ock": 1019,
      "iel": 1020,
      "Ġchang": 1021,
      "Ġright": 1022,
      "ources": 1023,
      "Ġcommon": 1024,
      "ĠWiFi": 1025,
      "Ġpot": 1026,
      "Ġgood": 1027,
      "aterial": 1028,
      "Ġincluding": 1029,
      "ts": 1030,
      "Ġbefore": 1031,
      "hing": 1032,
      "vern": 1033,
      "Ġaff": 1034,
      "Ġcult": 1035,
      "ved": 1036,
      "Ġproper": 1037,
      "Ġplan": 1038,
      "Ġve": 1039,
      "Ġserv": 1040,
      "itive": 1041,
      "Ġproble": 1042,
      "Ġfollow": 1043,
      "Ġpract": 1044,
      "Ġmy": 1045,
      "Ġens": 1046,
      "aw": 1047,
      "ier": 1048,
      "Ġvery": 1049,
      "Ġprom": 1050,
      "con": 1051,
      "Ġtem": 1052,
      "Ġmade": 1053,
      "ulation": 1054,
      "led": 1055,
      "Ġ4": 1056,
      "Ġmuch": 1057,
      "ĠFor": 1058,
      "Ġperform": 1059,
      "ital": 1060,
      "Ġdist": 1061,
      "Ġcent": 1062,
      "Ġcall": 1063,
      "ouse": 1064,
      "Ġdire": 1065,
      "ental": 1066,
      "ateg": 1067,
      "ĠInd": 1068,
      "Ġactiv": 1069,
      "iving": 1070,
      "Ġresult": 1071,
      "Ġexample": 1072,
      "ew": 1073,
      "Ġdown": 1074,
      "Ġcontin": 1075,
      "Ġgenetic": 1076,
      "Ġapplic": 1077,
      "iety": 1078,
      "ather": 1079,
      "rodu": 1080,
      "Ġshow": 1081,
      "ath": 1082,
      "Ġdevelopment": 1083,
      "Ġident": 1084,
      "Ġpub": 1085,
      "ability": 1086,
      "Ġfam": 1087,
      "Ġproduct": 1088,
      "ertain": 1089,
      "ring": 1090,
      "ined": 1091,
      "Ġsame": 1092,
      "itt": 1093,
      "Ġmaterial": 1094,
      "ĠYou": 1095,
      "Ġbenef": 1096,
      "omm": 1097,
      "Ġ201": 1098,
      "Ġvarious": 1099,
      "less": 1100,
      "ven": 1101,
      "Ġ\"": 1102,
      "read": 1103,
      "Ġdon": 1104,
      "Ġconn": 1105,
      "itions": 1106,
      "kes": 1107,
      "Ġwant": 1108,
      "Ġfind": 1109,
      "Ġaround": 1110,
      "Ġmon": 1111,
      "Ġmodel": 1112,
      "Ġend": 1113,
      "Ġbuild": 1114,
      "Ġback": 1115,
      "Ġday": 1116,
      "Ġnow": 1117,
      "Ġinfl": 1118,
      "Ġwrit": 1119,
      "ĠQ": 1120,
      "Ġiss": 1121,
      "Ġwithout": 1122,
      "ĠMan": 1123,
      "Ġsignific": 1124,
      "ired": 1125,
      "ivers": 1126,
      "ox": 1127,
      "Ġopt": 1128,
      "oci": 1129,
      "Ġmaking": 1130,
      "Ġhist": 1131,
      "Ġname": 1132,
      "Ġgu": 1133,
      "Ġbas": 1134,
      "Ġstart": 1135,
      "Ġvis": 1136,
      "ustain": 1137,
      "Ġprovide": 1138,
      "day": 1139,
      "gg": 1140,
      "Ġpain": 1141,
      "Ġmust": 1142,
      "Ġeas": 1143,
      "Ġcare": 1144,
      "land": 1145,
      "inc": 1146,
      "etter": 1147,
      "Ġchar": 1148,
      "ger": 1149,
      "pect": 1150,
      "âĢĶ": 1151,
      "Ġcur": 1152,
      "ism": 1153,
      "Ġtoo": 1154,
      "Ġneeds": 1155,
      "pen": 1156,
      "Ġstill": 1157,
      "ĠPro": 1158,
      "hod": 1159,
      "Ġaw": 1160,
      "ids": 1161,
      "Ġinclude": 1162,
      "Ġagain": 1163,
      "bon": 1164,
      "tain": 1165,
      "Ġhand": 1166,
      "Ġdem": 1167,
      "Ġknown": 1168,
      "Ġinvol": 1169,
      "Ġsmall": 1170,
      "ix": 1171,
      "Ġess": 1172,
      "Ġmem": 1173,
      "Ġimpact": 1174,
      "ĠHowever": 1175,
      "Ġmight": 1176,
      "ional": 1177,
      "Ġgrou": 1178,
      "Ġdisease": 1179,
      "gen": 1180,
      "asing": 1181,
      "âĢľ": 1182,
      "self": 1183,
      "Ġsl": 1184,
      "erest": 1185,
      "Ġant": 1186,
      "ustr": 1187,
      "Ġspecific": 1188,
      "Ġphys": 1189,
      "eed": 1190,
      "oman": 1191,
      "Ġplants": 1192,
      "Ġappro": 1193,
      "Ġprevent": 1194,
      "oms": 1195,
      "Ġcho": 1196,
      "Ġgovern": 1197,
      "Ġcreate": 1198,
      "Ġmusic": 1199,
      "line": 1200,
      "Ġbetter": 1201,
      "pping": 1202,
      "ĠâĢĺ": 1203,
      "Ġinterest": 1204,
      "Ġpotential": 1205,
      "the": 1206,
      "Ġ-": 1207,
      "ique": 1208,
      ",âĢĿ": 1209,
      "Ġpass": 1210,
      "Ġequ": 1211,
      "uture": 1212,
      "Ġproject": 1213,
      "ling": 1214,
      "Ġ6": 1215,
      "Ġcreat": 1216,
      "ets": 1217,
      "oss": 1218,
      "Ġplace": 1219,
      "Ġmeas": 1220,
      "Ġfunction": 1221,
      "Ġimprove": 1222,
      "ense": 1223,
      "meric": 1224,
      "Ġless": 1225,
      "Ġgra": 1226,
      "Ġgame": 1227,
      "Ġbel": 1228,
      "Ġsw": 1229,
      "Ġanother": 1230,
      "ource": 1231,
      "ological": 1232,
      "Ġfeel": 1233,
      "Ġpoint": 1234,
      "Ġmethod": 1235,
      "Ġeduc": 1236,
      "hy": 1237,
      "Ġwithin": 1238,
      "Ġkeep": 1239,
      "iew": 1240,
      "Ġobject": 1241,
      "ross": 1242,
      "not": 1243,
      "esp": 1244,
      "ave": 1245,
      "pa": 1246,
      "Ġbre": 1247,
      "Ġheat": 1248,
      "Ġchange": 1249,
      "Ġcontro": 1250,
      "This": 1251,
      "Ġdirect": 1252,
      "An": 1253,
      "Ġsomet": 1254,
      "Ġbeh": 1255,
      "ĠAl": 1256,
      "rence": 1257,
      "acter": 1258,
      "Ġinvest": 1259,
      "ĠAnd": 1260,
      "beat": 1261,
      "Ġpossible": 1262,
      "Ġarea": 1263,
      "Ġcaus": 1264,
      "Ġengine": 1265,
      "Ġresearch": 1266,
      "Ġcertain": 1267,
      "ains": 1268,
      "iod": 1269,
      "Ġschool": 1270,
      "eng": 1271,
      "Ġprof": 1272,
      "conom": 1273,
      "What": 1274,
      "Ġtherap": 1275,
      "ering": 1276,
      "Ġser": 1277,
      "ĠThere": 1278,
      "Ġstudy": 1279,
      "Ġchanges": 1280,
      "oid": 1281,
      "ince": 1282,
      "Ġbest": 1283,
      "Ġtreatment": 1284,
      "Ġold": 1285,
      "robeat": 1286,
      "Ġsym": 1287,
      "Ġsignal": 1288,
      "Ġreal": 1289,
      "ĠAr": 1290,
      "Ġ10": 1291,
      "ples": 1292,
      "Ġsignificant": 1293,
      "cing": 1294,
      "iness": 1295,
      "Ġhome": 1296,
      "ĠAll": 1297,
      "Ġglob": 1298,
      "Ġnumber": 1299,
      "me": 1300,
      "Ġoil": 1301,
      "Ġful": 1302,
      "ially": 1303,
      "Ġstudents": 1304,
      "Ġassoci": 1305,
      "Ġreduce": 1306,
      "Ġfoc": 1307,
      "Ġlot": 1308,
      "Ġaddition": 1309,
      "Ġblood": 1310,
      "ale": 1311,
      "Ġenc": 1312,
      "ĠDe": 1313,
      "Ġbecome": 1314,
      "Ġexperience": 1315,
      "ients": 1316,
      "ances": 1317,
      "Ġrepres": 1318,
      "Ġlearn": 1319,
      "Ġest": 1320,
      "ars": 1321,
      "ĠAmeric": 1322,
      "Ġcontribut": 1323,
      "Ġfew": 1324,
      "Ġocc": 1325,
      "Ġfuture": 1326,
      "Ġdr": 1327,
      "Ġnut": 1328,
      "Ġmanage": 1329,
      "Ġreport": 1330,
      "ĠBritish": 1331,
      "Ġessential": 1332,
      "Ġsit": 1333,
      "Ġconf": 1334,
      "Ġindividuals": 1335,
      "ium": 1336,
      "Ġide": 1337,
      "ination": 1338,
      "ished": 1339,
      "Ġret": 1340,
      "olution": 1341,
      "Ġsupp": 1342,
      "rain": 1343,
      "ĠAd": 1344,
      "Ġ202": 1345,
      "ered": 1346,
      "yn": 1347,
      "ĠX": 1348,
      "Ġmat": 1349,
      "Ġtool": 1350,
      "ety": 1351,
      "Ġlook": 1352,
      "Ġlarge": 1353,
      "urity": 1354,
      "Ġstate": 1355,
      "ills": 1356,
      "Ġnetwork": 1357,
      "Ġthough": 1358,
      "Ġnat": 1359,
      "Ġable": 1360,
      "Ġrequire": 1361,
      "Ġcountries": 1362,
      "ote": 1363,
      "ified": 1364,
      "ization": 1365,
      "ĠAfrobeat": 1366,
      "Ġrisk": 1367,
      "Ġcal": 1368,
      "Ġcarbon": 1369,
      "Ġfocus": 1370,
      "bers": 1371,
      "cial": 1372,
      "Ġrece": 1373,
      "ĠBut": 1374,
      "Ġmeans": 1375,
      "Ġpresent": 1376,
      "Ġeffective": 1377,
      "Ġlevels": 1378,
      "ustainable": 1379,
      "ien": 1380,
      "ner": 1381,
      "oint": 1382,
      "ury": 1383,
      "Ġleg": 1384,
      "Ġcause": 1385,
      "000": 1386,
      "fety": 1387,
      "Ġbus": 1388,
      "Ġlow": 1389,
      "Ġsucc": 1390,
      "gr": 1391,
      "ention": 1392,
      "iven": 1393,
      "Ġparticular": 1394,
      "ront": 1395,
      "Ġage": 1396,
      "Ġlight": 1397,
      "Ġtechnology": 1398,
      "cle": 1399,
      "ex": 1400,
      "inal": 1401,
      "Ġbr": 1402,
      "oura": 1403,
      "osed": 1404,
      "ogn": 1405,
      "agn": 1406,
      "put": 1407,
      "Ġhere": 1408,
      "ode": 1409,
      "ĠWhen": 1410,
      "Ġsever": 1411,
      "Ġimplement": 1412,
      "atic": 1413,
      "Ġeconom": 1414,
      "verse": 1415,
      "Ġconst": 1416,
      "Ġhealthy": 1417,
      "Ġkey": 1418,
      "ĠEng": 1419,
      "Ġmult": 1420,
      "Ġey": 1421,
      "Ġnon": 1422,
      "Ġareas": 1423,
      "Ġ18": 1424,
      "Ġconsum": 1425,
      "AN": 1426,
      "ways": 1427,
      "Ġflow": 1428,
      "Ġintern": 1429,
      "aring": 1430,
      "Ġhy": 1431,
      "ieve": 1432,
      "ats": 1433,
      "Ġbased": 1434,
      "Ġcomb": 1435,
      "ĠGen": 1436,
      "Ġcap": 1437,
      "Ġavail": 1438,
      "ield": 1439,
      "air": 1440,
      "Ġtop": 1441,
      "urther": 1442,
      "Ġyoun": 1443,
      "ĠSe": 1444,
      "Ġrole": 1445,
      ".,": 1446,
      "ining": 1447,
      "icle": 1448,
      "Ġdel": 1449,
      "reng": 1450,
      "ording": 1451,
      "Ġdeterm": 1452,
      "outh": 1453,
      "ĠOn": 1454,
      "ones": 1455,
      "ason": 1456,
      "omen": 1457,
      "ĠBy": 1458,
      "Ġsaid": 1459,
      "Ġsystems": 1460,
      "Ġpublic": 1461,
      "Ġagainst": 1462,
      "hile": 1463,
      "atory": 1464,
      "oring": 1465,
      "ctor": 1466,
      "Ġrest": 1467,
      "ploy": 1468,
      "If": 1469,
      "ditions": 1470,
      "por": 1471,
      "Ġdam": 1472,
      "Ġconsider": 1473,
      "Ġsocial": 1474,
      "Ġtemper": 1475,
      "It": 1476,
      "Ġair": 1477,
      "Ġmove": 1478,
      "ĠSh": 1479,
      "Ġrun": 1480,
      "Ġclimate": 1481,
      "Ġteam": 1482,
      "co": 1483,
      "ead": 1484,
      "Ġamount": 1485,
      "Ġensure": 1486,
      "Ġcalled": 1487,
      "Ġinflu": 1488,
      "Ġseveral": 1489,
      "ole": 1490,
      "eral": 1491,
      "Ġcor": 1492,
      "Ġpress": 1493,
      "ently": 1494,
      "Ġele": 1495,
      "Ġresources": 1496,
      "Ġmean": 1497,
      "NA": 1498,
      "bs": 1499,
      "cer": 1500,
      "to": 1501,
      "Ġox": 1502,
      "Ġthree": 1503,
      "Ġlim": 1504,
      "Ġpolic": 1505,
      "Ġlearning": 1506,
      "cent": 1507,
      "ton": 1508,
      "ĠTo": 1509,
      "ived": 1510,
      "Ġpost": 1511,
      "Ġfore": 1512,
      "ted": 1513,
      "ories": 1514,
      "Ġinit": 1515,
      "Ġrev": 1516,
      "Ġstreng": 1517,
      "ression": 1518,
      "Ġemb": 1519,
      "ah": 1520,
      "Ġfree": 1521,
      "ici": 1522,
      "ĠRoman": 1523,
      "Ġcomput": 1524,
      "hor": 1525,
      "Ġach": 1526,
      "Ġcru": 1527,
      "Ġstand": 1528,
      "Ġimm": 1529,
      "izing": 1530,
      "Ġcontain": 1531,
      "Ġsafety": 1532,
      "Ġbenefits": 1533,
      "Ġstep": 1534,
      "ames": 1535,
      "ĠCl": 1536,
      "Ġwhy": 1537,
      "Ġgrowth": 1538,
      "Ġcontrol": 1539,
      "br": 1540,
      "Ġtru": 1541,
      "ised": 1542,
      "irc": 1543,
      "Ġorder": 1544,
      "Ġchall": 1545,
      "ibern": 1546,
      "ends": 1547,
      "Ġdevices": 1548,
      "Ġhistory": 1549,
      "Ġgovernment": 1550,
      "Ġglobal": 1551,
      "ibernate": 1552,
      "atures": 1553,
      "Ġbo": 1554,
      "Ġcome": 1555,
      "Ġearly": 1556,
      "Ġcells": 1557,
      "urop": 1558,
      "Ġopen": 1559,
      "Ġdom": 1560,
      "ĠTe": 1561,
      "Ġperiod": 1562,
      "Ġaccount": 1563,
      "pportun": 1564,
      "Ġtype": 1565,
      "Ġmedic": 1566,
      "Ġbusiness": 1567,
      "Ġput": 1568,
      "Ġfib": 1569,
      "els": 1570,
      "Ġsure": 1571,
      "ript": 1572,
      "Ġquality": 1573,
      "Ġstrateg": 1574,
      "Ġpay": 1575,
      "Ġthings": 1576,
      "ored": 1577,
      "ards": 1578,
      "ips": 1579,
      "Ġaddress": 1580,
      "ittle": 1581,
      "Ġrepresent": 1582,
      "ax": 1583,
      "mon": 1584,
      "Ġanal": 1585,
      "arc": 1586,
      "Ġrele": 1587,
      "ilities": 1588,
      "ending": 1589,
      "Ġsafe": 1590,
      "Ġstrong": 1591,
      "Ġperformance": 1592,
      "Ġyoung": 1593,
      "ared": 1594,
      "Ġcour": 1595,
      "Ġbro": 1596,
      "Ġmark": 1597,
      "icult": 1598,
      "Ġspace": 1599,
      "aging": 1600,
      "ĠNo": 1601,
      "ĠAfric": 1602,
      "Ġtesting": 1603,
      "Ġmaintain": 1604,
      "Ġproducts": 1605,
      "Ġoccur": 1606,
      "Ġsuccess": 1607,
      "How": 1608,
      "Ġbi": 1609,
      "icient": 1610,
      "und": 1611,
      "ĠSc": 1612,
      "elf": 1613,
      "abor": 1614,
      "TC": 1615,
      "Ġdiet": 1616,
      "Ġel": 1617,
      "raph": 1618,
      "Ġhapp": 1619,
      "Ġdiff": 1620,
      "Ġavailable": 1621,
      "crib": 1622,
      "here": 1623,
      "Ġoper": 1624,
      "Ġcost": 1625,
      "any": 1626,
      "Ġfre": 1627,
      "Ġhim": 1628,
      "ended": 1629,
      "Ġincrease": 1630,
      "ee": 1631,
      "ior": 1632,
      "Ġ8": 1633,
      "Ġturn": 1634,
      "ank": 1635,
      "Ġdid": 1636,
      "Ġlay": 1637,
      "utions": 1638,
      "ĠRuss": 1639,
      "...": 1640,
      "Ġcomplex": 1641,
      "Ġfinanc": 1642,
      "Ġfamily": 1643,
      "Ġgroup": 1644,
      "ler": 1645,
      "Ġopportun": 1646,
      "Ġside": 1647,
      "Ġcase": 1648,
      "ann": 1649,
      "ision": 1650,
      "Ġmind": 1651,
      "arly": 1652,
      "Ġhouse": 1653,
      "omes": 1654,
      "Ġrad": 1655,
      "Ġphysical": 1656,
      "Ġsympt": 1657,
      "lo": 1658,
      "sp": 1659,
      "Ġsens": 1660,
      "Ġways": 1661,
      "Ġlist": 1662,
      "Ġrespons": 1663,
      "Ġissues": 1664,
      "iversity": 1665,
      "Ġnatural": 1666,
      "urope": 1667,
      "Ġlittle": 1668,
      "ĠSp": 1669,
      "Ġvir": 1670,
      "Ġprotect": 1671,
      "Ġfactors": 1672,
      "de": 1673,
      "iation": 1674,
      "Ġmen": 1675,
      "lection": 1676,
      "Ġhig": 1677,
      "ĠSome": 1678,
      "ĠCol": 1679,
      "ately": 1680,
      "ĠEurope": 1681,
      "Ġquest": 1682,
      "Ġprogram": 1683,
      "Ġproblems": 1684,
      "Ġfollowing": 1685,
      "cl": 1686,
      "gn": 1687,
      "sy": 1688,
      "Ġfront": 1689,
      "let": 1690,
      "ulate": 1691,
      "ĠIran": 1692,
      "Ġscient": 1693,
      "Ġoverall": 1694,
      "Ġcountry": 1695,
      "Ġpersonal": 1696,
      "Ġmaterials": 1697,
      "Ġcrucial": 1698,
      "jor": 1699,
      "iting": 1700,
      "ash": 1701,
      "ulf": 1702,
      "istic": 1703,
      "Ġlet": 1704,
      "ĠâĢĶ": 1705,
      "Ġappear": 1706,
      "We": 1707,
      "az": 1708,
      "over": 1709,
      "ators": 1710,
      "Ġcat": 1711,
      "idd": 1712,
      "Ġmakes": 1713,
      "aves": 1714,
      "Ġcharacter": 1715,
      "aren": 1716,
      "aking": 1717,
      "pr": 1718,
      "ral": 1719,
      "Ġfat": 1720,
      "Ġfac": 1721,
      "Ġdra": 1722,
      "Ġgreen": 1723,
      "ĠSo": 1724,
      "ĠHealth": 1725,
      "lished": 1726,
      "pos": 1727,
      "Ġdig": 1728,
      "Ġdue": 1729,
      "aster": 1730,
      "Ġcancer": 1731,
      "essor": 1732,
      "Ġusually": 1733,
      "Ġunt": 1734,
      "ĠUS": 1735,
      "Ġsoil": 1736,
      "Ġvalue": 1737,
      "Ġlocal": 1738,
      "Ġfinancial": 1739,
      "fer": 1740,
      "Ġter": 1741,
      "Ġtimes": 1742,
      "ither": 1743,
      "Ġmill": 1744,
      "ĠNew": 1745,
      "Ġpersist": 1746,
      "Ġobs": 1747,
      "Ġeffects": 1748,
      "Ġparent": 1749,
      "based": 1750,
      "ians": 1751,
      "lish": 1752,
      "Ġconditions": 1753,
      "ope": 1754,
      "ems": 1755,
      "Ġmajor": 1756,
      "Ġothers": 1757,
      "Ġidentify": 1758,
      "Ġdifficult": 1759,
      "fort": 1760,
      "Ġ17": 1761,
      "Ġcontent": 1762,
      "Ġtradition": 1763,
      "Ġspecial": 1764,
      "Ġunderstanding": 1765,
      "Ġproblem": 1766,
      "Ġmeasure": 1767,
      "mp": 1768,
      "Ġsun": 1769,
      "Ġsince": 1770,
      "Ġwomen": 1771,
      "Ġmental": 1772,
      "ape": 1773,
      "Ġclean": 1774,
      "Ġcurrent": 1775,
      "Ġmanagement": 1776,
      "of": 1777,
      "ug": 1778,
      "Ġtill": 1779,
      "itam": 1780,
      "itical": 1781,
      "outer": 1782,
      "Ġtoget": 1783,
      "ably": 1784,
      "ĠPr": 1785,
      "Ġnecess": 1786,
      "Ġunique": 1787,
      "Ġworking": 1788,
      "angu": 1789,
      "Ġrelations": 1790,
      "Ġacross": 1791,
      "Ġrequired": 1792,
      "Ġconcern": 1793,
      "Ġtogether": 1794,
      "iver": 1795,
      "Ġtre": 1796,
      "Ġcirc": 1797,
      "Ġfield": 1798,
      "Ġstruct": 1799,
      "ĠCan": 1800,
      "ference": 1801,
      "Ġhelps": 1802,
      "Ġsecurity": 1803,
      "ken": 1804,
      "mical": 1805,
      "ster": 1806,
      "Ġtext": 1807,
      "Ġamong": 1808,
      "Ġincreasing": 1809,
      "Ġallows": 1810,
      "Ġoptim": 1811,
      "Ġbehav": 1812,
      "19": 1813,
      "20": 1814,
      "As": 1815,
      "att": 1816,
      "Ġfurther": 1817,
      "ibility": 1818,
      "iple": 1819,
      "Ġindust": 1820,
      "Ġpatients": 1821,
      "Ġavoid": 1822,
      "Ġpopular": 1823,
      "wards": 1824,
      "Ġapplications": 1825,
      "Ġsomething": 1826,
      "Ġassociated": 1827,
      "Ġconcept": 1828,
      "thing": 1829,
      "orts": 1830,
      "ĠHibernate": 1831,
      "Ġaffect": 1832,
      "ourage": 1833,
      "ky": 1834,
      "side": 1835,
      "Ġ7": 1836,
      "ator": 1837,
      "Ġcy": 1838,
      "Ġpul": 1839,
      "ivity": 1840,
      "ĠOne": 1841,
      "Ġregular": 1842,
      "Ġarticle": 1843,
      "ires": 1844,
      "Ġill": 1845,
      "Ġsing": 1846,
      "Ġsay": 1847,
      "anced": 1848,
      "Ġthink": 1849,
      "ute": 1850,
      "ĠCon": 1851,
      "There": 1852,
      "ĠOr": 1853,
      "ounds": 1854,
      "Ġsyn": 1855,
      "Ġlikely": 1856,
      "Ġpath": 1857,
      "Ġpoll": 1858,
      "being": 1859,
      "Ġ9": 1860,
      "Ġcrit": 1861,
      "Ġfour": 1862,
      "Ġtoday": 1863,
      "ables": 1864,
      "hers": 1865,
      "Ġworks": 1866,
      "Ġgenet": 1867,
      "Ġapplication": 1868,
      "Ġsymptoms": 1869,
      "ML": 1870,
      "Ġself": 1871,
      "icro": 1872,
      "ilt": 1873,
      "Ġla": 1874,
      "ides": 1875,
      "Ġheart": 1876,
      "Ġrange": 1877,
      "Ġproduction": 1878,
      "Ġcomplete": 1879,
      "Ġservices": 1880,
      "Ġconnect": 1881,
      "St": 1882,
      "Ġtry": 1883,
      "Ġpar": 1884,
      "Ġfar": 1885,
      "Ġhard": 1886,
      "iles": 1887,
      "Ġlaw": 1888,
      "odies": 1889,
      "Ġwee": 1890,
      "ĠWor": 1891,
      "ĠWith": 1892,
      "ĠRes": 1893,
      "ĠDis": 1894,
      "ormal": 1895,
      "ecially": 1896,
      "Ġproduce": 1897,
      "Ġcommunic": 1898,
      "Ġcommunity": 1899,
      "Ġcourse": 1900,
      "Ġhigher": 1901,
      "par": 1902,
      "ane": 1903,
      "Ġloss": 1904,
      "amm": 1905,
      "Ġalong": 1906,
      "ĠEx": 1907,
      "ification": 1908,
      "Ġauthor": 1909,
      "Ġactivities": 1910,
      "Ġeducation": 1911,
      "Ġesp": 1912,
      "Ġwar": 1913,
      "Ġbig": 1914,
      "Ġalways": 1915,
      "ival": 1916,
      "acy": 1917,
      "Ġtypes": 1918,
      "Ġfull": 1919,
      "When": 1920,
      "erc": 1921,
      "itch": 1922,
      "Ġpred": 1923,
      "Ġorig": 1924,
      "Ġintrodu": 1925,
      "Ġfoods": 1926,
      "Ġsecond": 1927,
      "Ġelectric": 1928,
      "Ġapproach": 1929,
      "Ġstrength": 1930,
      "ration": 1931,
      "vious": 1932,
      "lying": 1933,
      "ots": 1934,
      "ulations": 1935,
      "Ġstre": 1936,
      "ĠPh": 1937,
      "Ġenh": 1938,
      "Ġrouter": 1939,
      "Ġabove": 1940,
      "Ġemot": 1941,
      "ooks": 1942,
      "Ġespecially": 1943,
      "Ġcam": 1944,
      "iter": 1945,
      "Ġgiven": 1946,
      "Ġsuff": 1947,
      "Ġhaving": 1948,
      "ustom": 1949,
      "aged": 1950,
      "Ġtax": 1951,
      "Ġmodern": 1952,
      "Ġdiscuss": 1953,
      "ggest": 1954,
      "Ġmethods": 1955,
      "ony": 1956,
      "Ġsource": 1957,
      "Ġmar": 1958,
      "Ġlater": 1959,
      "Ġlangu": 1960,
      "Ġgive": 1961,
      "Ġonline": 1962,
      "abet": 1963,
      "ĠWhat": 1964,
      "ember": 1965,
      "aces": 1966,
      "Ġemploy": 1967,
      "issions": 1968,
      "rosis": 1969,
      "Ġdiseases": 1970,
      "Ġchalleng": 1971,
      "ware": 1972,
      "rel": 1973,
      "Ġsense": 1974,
      "Ġharm": 1975,
      "Ġlast": 1976,
      "charge": 1977,
      "ĠComm": 1978,
      "Ġexist": 1979,
      "pped": 1980,
      "Ġuser": 1981,
      "acks": 1982,
      "ĠDNA": 1983,
      "Ġability": 1984,
      "Ġresist": 1985,
      "ission": 1986,
      "ĠUnited": 1987,
      "Ġdetail": 1988,
      "Ġuntil": 1989,
      "tic": 1990,
      "ties": 1991,
      "orth": 1992,
      "âĢĵ": 1993,
      "verage": 1994,
      "Ġvitam": 1995,
      "Ġplast": 1996,
      "Ġshort": 1997,
      "Ġneeded": 1998,
      "Ġreducing": 1999,
      "Ġpaper": 2000,
      "Ġclear": 2001,
      "Ġaway": 2002,
      "Ġcreating": 2003,
      "Ġtraditional": 2004,
      "face": 2005,
      "Ġcut": 2006,
      "Ġlo": 2007,
      "Ġline": 2008,
      "Ġsuggest": 2009,
      "Ġnext": 2010,
      "ours": 2011,
      "aps": 2012,
      "Ġcoll": 2013,
      "Ġthroughout": 2014,
      "Ġincreased": 2015,
      "ĠAmerican": 2016,
      "Ġrelationship": 2017,
      "apt": 2018,
      "hold": 2019,
      "Ġtal": 2020,
      "Ġcode": 2021,
      "Ġwon": 2022,
      "Ġbir": 2023,
      "Ġdog": 2024,
      "Ġeither": 2025,
      "Ġland": 2026,
      "Ġbeg": 2027,
      "Ġstress": 2028,
      "Ġstory": 2029,
      "ĠGo": 2030,
      "Ġtraits": 2031,
      "Ġdiagn": 2032,
      "Ġexplore": 2033,
      "Ġproviding": 2034,
      "iciency": 2035,
      "sych": 2036,
      "ygen": 2037,
      "ilar": 2038,
      "osis": 2039,
      "ograph": 2040,
      "ights": 2041,
      "ĠThat": 2042,
      "Ġpattern": 2043,
      "Ġprovides": 2044,
      "Ġdoesn": 2045,
      "Ġcultural": 2046,
      "ledge": 2047,
      "Ġestab": 2048,
      "ĠXML": 2049,
      "RE": 2050,
      "To": 2051,
      "Ġaud": 2052,
      "ery": 2053,
      "usion": 2054,
      "Ġprote": 2055,
      "Ġprinc": 2056,
      "ĠBritain": 2057,
      "Ġpict": 2058,
      "Ġscript": 2059,
      "ooking": 2060,
      "Ġpractice": 2061,
      "port": 2062,
      "inking": 2063,
      "Ġsays": 2064,
      "Ġcr": 2065,
      "Ġdone": 2066,
      "ilit": 2067,
      "Ġlab": 2068,
      "ĠAt": 2069,
      "Ġaspect": 2070,
      "Ġnever": 2071,
      "Ġpositive": 2072,
      "ĠUniversity": 2073,
      "Ġskills": 2074,
      "Ġenvironmental": 2075,
      "ready": 2076,
      "Ġtemperature": 2077,
      "gs": 2078,
      "ming": 2079,
      "nov": 2080,
      "Ġce": 2081,
      "Ġcity": 2082,
      "eds": 2083,
      "Ġmass": 2084,
      "idence": 2085,
      "Ġalready": 2086,
      "ths": 2087,
      "Ġvol": 2088,
      "Ġvide": 2089,
      "Ġview": 2090,
      "Ġinte": 2091,
      "plic": 2092,
      "Ġgoing": 2093,
      "Ġquick": 2094,
      "Ġspecies": 2095,
      "Ġground": 2096,
      "Ġcreated": 2097,
      "Ġsimple": 2098,
      "Ġprofess": 2099,
      "Ġdamage": 2100,
      "Ġachieve": 2101,
      "CH": 2102,
      "DG": 2103,
      "For": 2104,
      "PI": 2105,
      "You": 2106,
      "cy": 2107,
      "ule": 2108,
      "ina": 2109,
      "Ġport": 2110,
      "ĠIs": 2111,
      "ĠPTC": 2112,
      "Ġabs": 2113,
      "Ġwhether": 2114,
      "ava": 2115,
      "Ġprim": 2116,
      "Ġreturn": 2117,
      "aut": 2118,
      "atives": 2119,
      "isms": 2120,
      "ĠCom": 2121,
      "Ġ15": 2122,
      "Ġmapping": 2123,
      "arden": 2124,
      "Ġrecomm": 2125,
      "Ġposition": 2126,
      "Ġrespir": 2127,
      "Ġpressure": 2128,
      "Ġintegr": 2129,
      "Gen": 2130,
      "Van": 2131,
      "ising": 2132,
      "Ġfri": 2133,
      "Ġreally": 2134,
      "Ġlower": 2135,
      "Ġgain": 2136,
      "Ġenough": 2137,
      "Ġpercent": 2138,
      "Ġindic": 2139,
      "Ġrecogn": 2140,
      "Ġattention": 2141,
      "Ġskin": 2142,
      "Ġnetwor": 2143,
      "Ġcontinu": 2144,
      "Ġbuilding": 2145,
      "Ġbelie": 2146,
      "Ġbreak": 2147,
      "ĠDevelop": 2148,
      "ges": 2149,
      "ging": 2150,
      "most": 2151,
      "ystem": 2152,
      "Ġcases": 2153,
      "ises": 2154,
      "Ġinher": 2155,
      "arth": 2156,
      "Ġlives": 2157,
      "ĠCo": 2158,
      "though": 2159,
      "aches": 2160,
      "Ġleast": 2161,
      "Ġhowever": 2162,
      "oney": 2163,
      "Ġwhole": 2164,
      "Ġdeveloping": 2165,
      "ney": 2166,
      "ĠYour": 2167,
      "Ġrelated": 2168,
      "Ġgeneral": 2169,
      "Ġleading": 2170,
      "Ġdesigned": 2171,
      "Ġpurch": 2172,
      "Ġchemical": 2173,
      "Ġproperties": 2174,
      "Ġheaters": 2175,
      "min": 2176,
      "rist": 2177,
      "order": 2178,
      "Ġhorn": 2179,
      "Ġlive": 2180,
      "Ġliving": 2181,
      "ĠAct": 2182,
      "idered": 2183,
      "Ġaccording": 2184,
      "oviet": 2185,
      "Ġnecessary": 2186,
      "abetes": 2187,
      "hib": 2188,
      "iable": 2189,
      "Ġ&": 2190,
      "Ġtine": 2191,
      "onse": 2192,
      "Ġbrain": 2193,
      "ules": 2194,
      "Ġdeep": 2195,
      "Ġkind": 2196,
      "Ġconsidered": 2197,
      "Ġrecord": 2198,
      "Ġsimilar": 2199,
      "Ġpopulation": 2200,
      "iences": 2201,
      "Ġdetermine": 2202,
      "Ġstrategies": 2203,
      "gu": 2204,
      "ners": 2205,
      "ply": 2206,
      "Ġut": 2207,
      "Ġaim": 2208,
      "Ġcustom": 2209,
      "Ġwide": 2210,
      "Ġbreat": 2211,
      "une": 2212,
      "Ġcondition": 2213,
      "osp": 2214,
      "Ġrather": 2215,
      "duct": 2216,
      "action": 2217,
      "ĠUs": 2218,
      "Ġdeveloped": 2219,
      "Ġvariety": 2220,
      "Ġculture": 2221,
      "man": 2222,
      "time": 2223,
      "Äģ": 2224,
      "Ġz": 2225,
      "asc": 2226,
      "Ġhold": 2227,
      "Ġreason": 2228,
      "Ġlink": 2229,
      "ĠSky": 2230,
      "ads": 2231,
      "ĠPre": 2232,
      "illed": 2233,
      "Ġleaves": 2234,
      "ĠDo": 2235,
      "Ġkids": 2236,
      "Ġgenes": 2237,
      "Ġsoft": 2238,
      "Ġincludes": 2239,
      "Ġpolitical": 2240,
      "selves": 2241,
      "Ġsolar": 2242,
      "Ġtherapy": 2243,
      "Ġtools": 2244,
      "Ġoxygen": 2245,
      "iddle": 2246,
      "alu": 2247,
      "edic": 2248,
      "ederal": 2249,
      "Ġlar": 2250,
      "Ġbelow": 2251,
      "tery": 2252,
      "ĠBl": 2253,
      "aving": 2254,
      "ribution": 2255,
      "ĠAfrican": 2256,
      "Ġfrequ": 2257,
      "Ġsingle": 2258,
      "joy": 2259,
      "oor": 2260,
      "pose": 2261,
      "Ġer": 2262,
      "Ġannot": 2263,
      "aling": 2264,
      "Ġbal": 2265,
      "Ġmob": 2266,
      "Ġdays": 2267,
      "str": 2268,
      "mentia": 2269,
      "Ġwords": 2270,
      "Ġadult": 2271,
      "Ġ200": 2272,
      "Ġmeet": 2273,
      "Ġtaking": 2274,
      "Ġknowledge": 2275,
      "Ġeasy": 2276,
      "Ġmembers": 2277,
      "monary": 2278,
      "18": 2279,
      "ER": 2280,
      "ding": 2281,
      "Ġtar": 2282,
      "Ġsite": 2283,
      "Ġdat": 2284,
      "Ġleft": 2285,
      "Ġdischarge": 2286,
      "Ġcompon": 2287,
      "fully": 2288,
      "ĠChrist": 2289,
      "Ġcheck": 2290,
      "Ġinvolves": 2291,
      "Ġchoose": 2292,
      "ĠAllen": 2293,
      "Ġsitu": 2294,
      "Ġcalc": 2295,
      "Ġfibrosis": 2296,
      "cient": 2297,
      "fl": 2298,
      "yle": 2299,
      "isions": 2300,
      "Ġwin": 2301,
      "ĠShe": 2302,
      "ump": 2303,
      "ĠDr": 2304,
      "play": 2305,
      "Ġclose": 2306,
      "ried": 2307,
      "Ġparts": 2308,
      "Ġentire": 2309,
      "Ġclasses": 2310,
      "Ġcauses": 2311,
      "Ġelements": 2312,
      "ĠRussia": 2313,
      "ault": 2314,
      "by": 2315,
      "for": 2316,
      "ik": 2317,
      "Ġtable": 2318,
      "eration": 2319,
      "Ġsources": 2320,
      "Ġwind": 2321,
      "Ġanim": 2322,
      "Ġbul": 2323,
      "iger": 2324,
      "adata": 2325,
      "Ġemissions": 2326,
      "ologies": 2327,
      "Ġproduced": 2328,
      "Ġimportance": 2329,
      "Ġentity": 2330,
      "Ġindustry": 2331,
      "ged": 2332,
      "rition": 2333,
      "Ġmoney": 2334,
      "Ġthreat": 2335,
      "Ġreach": 2336,
      "chan": 2337,
      "Ġask": 2338,
      "erson": 2339,
      "Ġsum": 2340,
      "Ġseen": 2341,
      "rior": 2342,
      "Ġoutside": 2343,
      "Ġscience": 2344,
      "Ġemerg": 2345,
      "Ġblock": 2346,
      "Ġresponse": 2347,
      "iques": 2348,
      "Ġgrowing": 2349,
      "Ġmedical": 2350,
      "Ġlonger": 2351,
      "Ġreflect": 2352,
      "Ġactivity": 2353,
      "Ġbasic": 2354,
      "Ġobserv": 2355,
      "10": 2356,
      "MO": 2357,
      "ext": 2358,
      "gra": 2359,
      "pid": 2360,
      "tings": 2361,
      "ened": 2362,
      "Ġhal": 2363,
      "ils": 2364,
      "Ġnature": 2365,
      "ades": 2366,
      "Ġspeed": 2367,
      "Ġwaste": 2368,
      "ruction": 2369,
      "Ġfeatures": 2370,
      "ronic": 2371,
      "Ġreading": 2372,
      "Ġoptions": 2373,
      "Ġnutri": 2374,
      "Ġopportunities": 2375,
      ".\"": 2376,
      "cks": 2377,
      "gal": 2378,
      "oot": 2379,
      "Ġ.": 2380,
      "Ġver": 2381,
      "erous": 2382,
      "Ġsulf": 2383,
      "ili": 2384,
      "uses": 2385,
      "Ġusers": 2386,
      "ĠMont": 2387,
      "ĠWhile": 2388,
      "Ġrout": 2389,
      "Ġmagn": 2390,
      "Ġcollect": 2391,
      "Ġsurv": 2392,
      "Ġautom": 2393,
      "Ġdevice": 2394,
      "Ġgroups": 2395,
      "Ġpolicy": 2396,
      "Ġmarket": 2397,
      "care": 2398,
      "lor": 2399,
      "ze": 2400,
      "Ġsect": 2401,
      "Ġtowards": 2402,
      "Ġreb": 2403,
      "ĠHere": 2404,
      "ibr": 2405,
      "alls": 2406,
      "Ġrecent": 2407,
      "Ġdescrib": 2408,
      "Ġtypically": 2409,
      "Ġrights": 2410,
      "ĠMany": 2411,
      "Ġslice": 2412,
      "Ġobjects": 2413,
      "Ġhyd": 2414,
      "Ġsteps": 2415,
      "areness": 2416,
      "Ġgenetics": 2417,
      "One": 2418,
      "yond": 2419,
      "reme": 2420,
      "Ġslow": 2421,
      "Ġpast": 2422,
      "Ġmov": 2423,
      "lebr": 2424,
      "eter": 2425,
      "oll": 2426,
      "Ġonce": 2427,
      "ĠAPI": 2428,
      "ĠSchool": 2429,
      "Ġhead": 2430,
      "Ġsuper": 2431,
      "Ġshown": 2432,
      "Ġoffer": 2433,
      "Ġrequires": 2434,
      "Ġtarget": 2435,
      "Ad": 2436,
      "go": 2437,
      "Ġaction": 2438,
      "Ġsustainable": 2439,
      "ales": 2440,
      "roid": 2441,
      "Ġhab": 2442,
      "Ġlif": 2443,
      "ĠSu": 2444,
      "Ġexerc": 2445,
      "Ġwebs": 2446,
      "ume": 2447,
      "Ġneg": 2448,
      "Ġdoctor": 2449,
      "Ġcapt": 2450,
      "Ġscreen": 2451,
      "Ġuseful": 2452,
      "ensive": 2453,
      "Ġinside": 2454,
      "Ġlocation": 2455,
      "Ġdirectly": 2456,
      "Ġmultiple": 2457,
      "ĠDevelopment": 2458,
      "equ": 2459,
      "ma": 2460,
      "sw": 2461,
      "vant": 2462,
      "ying": 2463,
      "Ġvers": 2464,
      "Ġtell": 2465,
      "inate": 2466,
      "Ġcoun": 2467,
      "esc": 2468,
      "edi": 2469,
      "Ġlog": 2470,
      "Ġenjoy": 2471,
      "aced": 2472,
      "Ġ12": 2473,
      "ĠIntern": 2474,
      "ĠNational": 2475,
      "ĠJava": 2476,
      "Ġsolutions": 2477,
      "Ġpractices": 2478,
      "Ġhistor": 2479,
      "Ġsometimes": 2480,
      "Ġparticularly": 2481,
      "Ġeye": 2482,
      "olec": 2483,
      "Ġscientists": 2484,
      "Ġnetworks": 2485,
      "af": 2486,
      "ches": 2487,
      "iples": 2488,
      "icial": 2489,
      "Ġdru": 2490,
      "asive": 2491,
      "urally": 2492,
      "Ġcannot": 2493,
      "term": 2494,
      "Ġdementia": 2495,
      "Ġcomes": 2496,
      "ĠBe": 2497,
      "osing": 2498,
      "ĠWill": 2499,
      "Ġnear": 2500,
      "epend": 2501,
      "Ġstudies": 2502,
      "Ġ30": 2503,
      "Ġsimply": 2504,
      "Ġresearc": 2505,
      "Ġparticip": 2506,
      "Ġminim": 2507,
      "Ġpromote": 2508,
      "paign": 2509,
      "Ġcaused": 2510,
      "Ġolder": 2511,
      "Ġdomain": 2512,
      "Ġbegin": 2513,
      "Ġsat": 2514,
      "Ġbad": 2515,
      "Ġinnov": 2516,
      "Ġhum": 2517,
      "Ġet": 2518,
      "ching": 2519,
      "Ġselect": 2520,
      "ulture": 2521,
      "Ġmechan": 2522,
      "Ġjour": 2523,
      "overed": 2524,
      "Ġtechnologies": 2525,
      "ancy": 2526,
      "Ġresults": 2527,
      "Ġguid": 2528,
      "Ġrequirements": 2529,
      "Ġconsumption": 2530,
      "Ġinfluence": 2531,
      "Ġcomputer": 2532,
      "Ġanaly": 2533,
      "Ġresponsible": 2534,
      "Ġdigital": 2535,
      "Ġmillion": 2536,
      "Ġparents": 2537,
      "Ġcritical": 2538,
      "'t": 2539,
      "AL": 2540,
      "Al": 2541,
      "ae": 2542,
      "tt": 2543,
      "ym": 2544,
      "Ġcard": 2545,
      "Ġcrop": 2546,
      "Ġpsych": 2547,
      "orb": 2548,
      "Ġinse": 2549,
      "Ġmot": 2550,
      "Ġhol": 2551,
      "Ġlove": 2552,
      "Ġisn": 2553,
      "irm": 2554,
      "ĠSustainable": 2555,
      "Ġconduct": 2556,
      "ĠCons": 2557,
      "osure": 2558,
      "ĠFrom": 2559,
      "ildren": 2560,
      "Ġthemselves": 2561,
      "orders": 2562,
      "Ġacid": 2563,
      "Ġmetadata": 2564,
      "Ġexpress": 2565,
      "Ġtechniques": 2566,
      "Ġsmo": 2567,
      "ĠIndia": 2568,
      "Ġwriting": 2569,
      "Ġideas": 2570,
      "essori": 2571,
      "Ġbehavior": 2572,
      "AS": 2573,
      "ON": 2574,
      "like": 2575,
      "way": 2576,
      "Ġsize": 2577,
      "estern": 2578,
      "arr": 2579,
      "Ġever": 2580,
      "Ġlack": 2581,
      "Ġgam": 2582,
      "Ġyet": 2583,
      "ott": 2584,
      "ĠSoviet": 2585,
      "Ġuses": 2586,
      "Ġweb": 2587,
      "rences": 2588,
      "Ġrate": 2589,
      "Ġsepar": 2590,
      "Ġspread": 2591,
      "duc": 2592,
      "Ġcommit": 2593,
      "Ġbecame": 2594,
      "Ġremain": 2595,
      "Ġprocesses": 2596,
      "ditionally": 2597,
      "Ġpromot": 2598,
      "Ġcontinue": 2599,
      "Ġinvestment": 2600,
      "Ġeconomy": 2601,
      "Ġenhance": 2602,
      "Ġpicture": 2603,
      "AT": 2604,
      "Un": 2605,
      "fact": 2606,
      "Ġfig": 2607,
      "Ġbar": 2608,
      "oud": 2609,
      "lex": 2610,
      "Ġred": 2611,
      "urch": 2612,
      "ĠAm": 2613,
      "ĠAcc": 2614,
      "amic": 2615,
      "ĠCont": 2616,
      "abilities": 2617,
      "ĠPower": 2618,
      "Ġsex": 2619,
      "ĠDay": 2620,
      "izations": 2621,
      "Ġassess": 2622,
      "Ġrespect": 2623,
      "Ġsociety": 2624,
      "Ġadvant": 2625,
      "Ġbehind": 2626,
      "Ġeyes": 2627,
      "Ġpolicies": 2628,
      "ĠTechn": 2629,
      "Ġtiller": 2630,
      "Ġpulmonary": 2631,
      "Ġhorns": 2632,
      "PA": 2633,
      "ugh": 2634,
      "rect": 2635,
      "Ġcit": 2636,
      "ences": 2637,
      "orpor": 2638,
      "icles": 2639,
      "omy": 2640,
      "Ġbeyond": 2641,
      "ĠTr": 2642,
      "Ġitself": 2643,
      "oph": 2644,
      "ĠInst": 2645,
      "ously": 2646,
      "Ġupon": 2647,
      "ervation": 2648,
      "Ġexperim": 2649,
      "ropri": 2650,
      "Ġgeneration": 2651,
      "Ġpurpose": 2652,
      "Ġsubject": 2653,
      "Ġcentury": 2654,
      "Ġembry": 2655,
      "Ġpersistent": 2656,
      "Ġweek": 2657,
      "Ġcollabor": 2658,
      "On": 2659,
      "Ġ[": 2660,
      "erve": 2661,
      "Ġsection": 2662,
      "Ġprior": 2663,
      "Ġfive": 2664,
      "Ġbur": 2665,
      "Ġbring": 2666,
      "Ġmolec": 2667,
      "Ġgarden": 2668,
      "olic": 2669,
      "Ġitems": 2670,
      "ĠWh": 2671,
      "izes": 2672,
      "actions": 2673,
      "ĠUse": 2674,
      "Ġprec": 2675,
      "Ġsigns": 2676,
      "Ġefficiency": 2677,
      "ysis": 2678,
      "Ġbuilt": 2679,
      "Ġvalues": 2680,
      "Ġproperty": 2681,
      "ĠQu": 2682,
      "Ġadditional": 2683,
      "Ġconcerns": 2684,
      "Ġcelebr": 2685,
      "ĠMontessori": 2686,
      "che": 2687,
      "gest": 2688,
      "know": 2689,
      "light": 2690,
      "mber": 2691,
      "ters": 2692,
      "ye": 2693,
      "Ġwire": 2694,
      "Ġfram": 2695,
      "Ġmor": 2696,
      "ask": 2697,
      "Ġforms": 2698,
      "ulated": 2699,
      "rams": 2700,
      "Ġprob": 2701,
      "Ġdeath": 2702,
      "ĠPe": 2703,
      "Ġchann": 2704,
      "ĠMay": 2705,
      "ĠDep": 2706,
      "Ġshare": 2707,
      "Ġspring": 2708,
      "Ġresource": 2709,
      "derstand": 2710,
      "Ġteach": 2711,
      "Ġtakes": 2712,
      "aily": 2713,
      "Ġconnection": 2714,
      "Ġeasily": 2715,
      "Ġinvolved": 2716,
      "Ġcontribute": 2717,
      "Ġquestions": 2718,
      "Ġvideo": 2719,
      "Ch": 2720,
      "RAN": 2721,
      "just": 2722,
      "pro": 2723,
      "xiety": 2724,
      "Ġban": 2725,
      "asons": 2726,
      "Ġgas": 2727,
      "rag": 2728,
      "raft": 2729,
      "unic": 2730,
      "Ġheav": 2731,
      "Ġalmost": 2732,
      "istics": 2733,
      "ively": 2734,
      "ured": 2735,
      "Ġmach": 2736,
      "Ġsomeone": 2737,
      "Ġadded": 2738,
      "encing": 2739,
      "Ġpatient": 2740,
      "Ġinstance": 2741,
      "Ġsurface": 2742,
      "Ġadvance": 2743,
      "Ġcommunities": 2744,
      "Ġveget": 2745,
      "Ġshows": 2746,
      "Ġeconomic": 2747,
      "Ġiniti": 2748,
      "Ġdraw": 2749,
      "Ġdatab": 2750,
      "50": 2751,
      "haps": 2752,
      "Ä«": 2753,
      "Ġopp": 2754,
      "ison": 2755,
      "Ġfail": 2756,
      "Ġbit": 2757,
      "Ġbook": 2758,
      "Ġmicro": 2759,
      "Ġdyn": 2760,
      "arily": 2761,
      "Ġec": 2762,
      "Ġbeaut": 2763,
      "Ġproced": 2764,
      "ung": 2765,
      "ĠCent": 2766,
      "Ġexc": 2767,
      "Ġexce": 2768,
      "Ġsug": 2769,
      "ĠMed": 2770,
      "Ġseem": 2771,
      "ĠLe": 2772,
      "Ġprevious": 2773,
      "rows": 2774,
      "Ġblack": 2775,
      "Ġstudent": 2776,
      "Ġphot": 2777,
      "Ġtransfer": 2778,
      "Ġdecisions": 2779,
      "Ġleaders": 2780,
      "Ġissue": 2781,
      "ustrial": 2782,
      "Ġswitch": 2783,
      "Ġschools": 2784,
      "Ġmedicine": 2785,
      "ĠWorld": 2786,
      "Ġlanguage": 2787,
      "mit": 2788,
      "ĠZ": 2789,
      "Ġsong": 2790,
      "ening": 2791,
      "itable": 2792,
      "ister": 2793,
      "Ġfall": 2794,
      "Ġdry": 2795,
      "Ġlate": 2796,
      "Ġprop": 2797,
      "Ġspe": 2798,
      "Ġadapt": 2799,
      "Ġevent": 2800,
      "Ġaccur": 2801,
      "Ġcolor": 2802,
      "ĠStates": 2803,
      "Ġprogress": 2804,
      "Ġservice": 2805,
      "Ġinvestig": 2806,
      "Ġsites": 2807,
      "Ġidea": 2808,
      "Ġmatter": 2809,
      "ĠCanad": 2810,
      "eff": 2811,
      "Ġaverage": 2812,
      "Ġfile": 2813,
      "ctors": 2814,
      "Ġled": 2815,
      "Ġnormal": 2816,
      "ocu": 2817,
      "Ġyourself": 2818,
      "ĠEduc": 2819,
      "Ġword": 2820,
      "ĠOver": 2821,
      "ension": 2822,
      "Ġfeed": 2823,
      "Ġconsist": 2824,
      "Ġgoal": 2825,
      "Ġdifference": 2826,
      "Ġdecre": 2827,
      "Ġgetting": 2828,
      "Ġextreme": 2829,
      "Ġelectr": 2830,
      "Ġensuring": 2831,
      "ĠIndian": 2832,
      "Ġpublished": 2833,
      "Ġmonit": 2834,
      "Ġdemon": 2835,
      "Ġdemand": 2836,
      "Ġantib": 2837,
      "Ġthought": 2838,
      "Ġimplementation": 2839,
      "Ġmovement": 2840,
      "Ġmeaning": 2841,
      "Ġelectricity": 2842,
      "Ġcampaign": 2843,
      "Ġprotein": 2844,
      "Ġbreath": 2845,
      "Ġhalf": 2846,
      "pre": 2847,
      "Ġtiss": 2848,
      "Ġwal": 2849,
      "Ġmess": 2850,
      "Ġdest": 2851,
      "Ġdaily": 2852,
      "arian": 2853,
      "lease": 2854,
      "oli": 2855,
      "ray": 2856,
      "ĠMin": 2857,
      "Ġjoint": 2858,
      "rict": 2859,
      "Ġnews": 2860,
      "Ġ199": 2861,
      "Ġimproving": 2862,
      "Ġsecure": 2863,
      "Ġextra": 2864,
      "ifying": 2865,
      "Ġplanning": 2866,
      "Ġmonths": 2867,
      "Ġawareness": 2868,
      "Ġsignificantly": 2869,
      "Ġreceive": 2870,
      "Ġhousehold": 2871,
      "ĠEuropean": 2872,
      "minist": 2873,
      "30": 2874,
      "hn": 2875,
      "house": 2876,
      "word": 2877,
      "Ġ$": 2878,
      "Ġur": 2879,
      "Ġslic": 2880,
      "Ġwat": 2881,
      "Ġpack": 2882,
      "Ġancient": 2883,
      "Ġhous": 2884,
      "Ġthing": 2885,
      "Ġeating": 2886,
      "Ġelement": 2887,
      "Ġlat": 2888,
      "Ġones": 2889,
      "ĠSDG": 2890,
      "ĠPer": 2891,
      "Ġclin": 2892,
      "Ġarr": 2893,
      "Ġevalu": 2894,
      "rown": 2895,
      "Ġefforts": 2896,
      "Ġoffers": 2897,
      "Ġremove": 2898,
      "Ġremains": 2899,
      "Ġexplain": 2900,
      "Ġsubst": 2901,
      "Ġwritten": 2902,
      "Ġinternet": 2903,
      "Ġprimary": 2904,
      "//": 2905,
      "://": 2906,
      "ha": 2907,
      "inary": 2908,
      "hem": 2909,
      "Ġanxiety": 2910,
      "Ġhope": 2911,
      "utes": 2912,
      "stron": 2913,
      "ulner": 2914,
      "ĠAustr": 2915,
      "sequ": 2916,
      "Ġexcess": 2917,
      "istan": 2918,
      "Ġvo": 2919,
      "Ġimage": 2920,
      "arding": 2921,
      "ĠLet": 2922,
      "ĠLond": 2923,
      "Ġcompan": 2924,
      "Ġcompany": 2925,
      "Ġappl": 2926,
      "Ġjob": 2927,
      "Ġtrust": 2928,
      "Ġinfect": 2929,
      "Ġpoor": 2930,
      "Ġattack": 2931,
      "Ġdiabetes": 2932,
      "ĠAfter": 2933,
      "Ġnumbers": 2934,
      "Ġplayers": 2935,
      "Ġcommonly": 2936,
      "Ġpredict": 2937,
      "Ġvitamin": 2938,
      "Ġplastic": 2939,
      "Ġresearchers": 2940,
      "Ġetc": 2941,
      "By": 2942,
      "EC": 2943,
      "Pro": 2944,
      "ais": 2945,
      "reg": 2946,
      "Ġoption": 2947,
      "ites": 2948,
      "Ġfire": 2949,
      "Ġfav": 2950,
      "Ġfederal": 2951,
      "Ġbank": 2952,
      "arv": 2953,
      "Ġstat": 2954,
      "ird": 2955,
      "ĠSw": 2956,
      "ĠPO": 2957,
      "ĠPers": 2958,
      "Ġvia": 2959,
      "empt": 2960,
      "Ġsearch": 2961,
      "Ġ100": 2962,
      "Ġarch": 2963,
      "Ġappropri": 2964,
      "formation": 2965,
      "Ġupd": 2966,
      "Ġtaken": 2967,
      "Ġactually": 2968,
      "Ġregion": 2969,
      "atively": 2970,
      "Ġaccept": 2971,
      "Ġpriv": 2972,
      "Ġflu": 2973,
      "Ġmedia": 2974,
      "Ġallowing": 2975,
      "ĠReg": 2976,
      "Ġvisit": 2977,
      "Ġmemory": 2978,
      "Ġreported": 2979,
      "Ġforest": 2980,
      "Ġtrees": 2981,
      "Ġstructure": 2982,
      "Ġpatterns": 2983,
      "Ġquickly": 2984,
      "Ġannotations": 2985,
      "ĠLondon": 2986,
      "OM": 2987,
      "aim": 2988,
      "nal": 2989,
      "uro": 2990,
      "ufact": 2991,
      "Ġ=": 2992,
      "atform": 2993,
      "Ġoce": 2994,
      "Ġsal": 2995,
      "Ġcame": 2996,
      "Ġwants": 2997,
      "Ġwarm": 2998,
      "Ġface": 2999,
      "Ġmix": 3000,
      "lements": 3001,
      "Ġhor": 3002,
      "ctions": 3003,
      "eth": 3004,
      "ivil": 3005,
      "rench": 3006,
      "ĠEm": 3007,
      "Ġshape": 3008,
      "place": 3009,
      "ĠGe": 3010,
      "ĠOther": 3011,
      "Ġdoing": 3012,
      "Ġexpect": 3013,
      "ĠPlant": 3014,
      "Ġrefer": 3015,
      "ields": 3016,
      "itted": 3017,
      "Ġemotional": 3018,
      "Ġutil": 3019,
      "ees": 3020,
      "ror": 3021,
      "rast": 3022,
      "tal": 3023,
      "we": 3024,
      "ww": 3025,
      "where": 3026,
      "itud": 3027,
      "Ġwr": 3028,
      "Ġann": 3029,
      "Ġmut": 3030,
      "aries": 3031,
      "lear": 3032,
      "Ġeat": 3033,
      "Ġeth": 3034,
      "Ġreasons": 3035,
      "ush": 3036,
      "ĠCal": 3037,
      "Ġexact": 3038,
      "ocol": 3039,
      "Ġrich": 3040,
      "Ġsequ": 3041,
      "Ġnotice": 3042,
      "ĠGr": 3043,
      "Ġgene": 3044,
      "earch": 3045,
      "Ġindustrial": 3046,
      "Ġevents": 3047,
      "Ġconsult": 3048,
      "Ġincluded": 3049,
      "Ġrain": 3050,
      "ĠChildren": 3051,
      "Ġdecl": 3052,
      "Ġcarry": 3053,
      "Ġdiverse": 3054,
      "Ġinstead": 3055,
      "Ġearl": 3056,
      "Ġpowerful": 3057,
      "ategory": 3058,
      "Ġpoints": 3059,
      "hyth": 3060,
      "Ġinternational": 3061,
      "Ġtruck": 3062,
      "Ġrelease": 3063,
      "Ġlayer": 3064,
      "Ġquestion": 3065,
      "Ġresistance": 3066,
      "Ġbalance": 3067,
      "derstanding": 3068,
      "ES": 3069,
      "IC": 3070,
      "ID": 3071,
      "OR": 3072,
      "So": 3073,
      "aff": 3074,
      "ores": 3075,
      "inct": 3076,
      "inally": 3077,
      "Ġsam": 3078,
      "Ġsound": 3079,
      "Ġcart": 3080,
      "Ġcorn": 3081,
      "Ġcogn": 3082,
      "alities": 3083,
      "Ġfu": 3084,
      "Ġbill": 3085,
      "Ġmouth": 3086,
      "ley": 3087,
      "Ġhours": 3088,
      "Ġliter": 3089,
      "Ġlooking": 3090,
      "idge": 3091,
      "ĠApp": 3092,
      "Ġwhite": 3093,
      "ĠWestern": 3094,
      "Ġplays": 3095,
      "Ġdisorders": 3096,
      "Ġadop": 3097,
      "ellow": 3098,
      "ription": 3099,
      "Ġevolution": 3100,
      "Ġtravel": 3101,
      "useum": 3102,
      "ĠJo": 3103,
      "Ġassist": 3104,
      "Ġ50": 3105,
      "Ġprovided": 3106,
      "imately": 3107,
      "ĠAss": 3108,
      "Ġgreater": 3109,
      "Ġaffected": 3110,
      "Ġvector": 3111,
      "Ġeasier": 3112,
      "Ġequip": 3113,
      "Ġprojects": 3114,
      "Ġmeasures": 3115,
      "Ġbelieve": 3116,
      "Ġrevolution": 3117,
      "Ġcycle": 3118,
      "Ġillustr": 3119,
      "Ġchallenges": 3120,
      "ĠAustral": 3121,
      "15": 3122,
      "IN": 3123,
      "bo": 3124,
      "atically": 3125,
      "enn": 3126,
      "Ġansw": 3127,
      "org": 3128,
      "oro": 3129,
      "oul": 3130,
      "Ġmal": 3131,
      "vere": 3132,
      "ĠAb": 3133,
      "elines": 3134,
      "Ġheating": 3135,
      "Ġexec": 3136,
      "ĠPa": 3137,
      "Ġvulner": 3138,
      "Ġweight": 3139,
      "ĠHer": 3140,
      "Ġrise": 3141,
      "These": 3142,
      "Ġgoals": 3143,
      "phas": 3144,
      "Ġhighly": 3145,
      "Ġattribut": 3146,
      "Ġremember": 3147,
      "Ġsmart": 3148,
      "Ġinstruct": 3149,
      "Ġinsp": 3150,
      "Ġprotection": 3151,
      "Ġfinal": 3152,
      "Ġmodels": 3153,
      "Ġinflamm": 3154,
      "Ġencourage": 3155,
      "Ġnutrition": 3156,
      "Ġconstruction": 3157,
      "Ġinitial": 3158,
      "Ġbusinesses": 3159,
      "Ġanalysis": 3160,
      "Ġadults": 3161,
      "Ġwebsite": 3162,
      "But": 3163,
      "While": 3164,
      "fect": 3165,
      "inks": 3166,
      "ream": 3167,
      "itation": 3168,
      "Ġmit": 3169,
      "ĠAg": 3170,
      "ĠSn": 3171,
      "ĠSec": 3172,
      "Ġaltern": 3173,
      "Ġdeal": 3174,
      "umn": 3175,
      "Ġnearly": 3176,
      "emic": 3177,
      "ocr": 3178,
      "Ġ11": 3179,
      "ĠOf": 3180,
      "Ġappe": 3181,
      "Ġmanufact": 3182,
      "Ġscan": 3183,
      "Ġjo": 3184,
      "Ġanything": 3185,
      "Ġcollection": 3186,
      "Ġfund": 3187,
      "Ġattempt": 3188,
      "Ġexamples": 3189,
      "Ġimproved": 3190,
      "Ġdepend": 3191,
      "Ġprograms": 3192,
      "Ġsupply": 3193,
      "ĠEnglish": 3194,
      "Ġtopic": 3195,
      "ĠShah": 3196,
      "Ġlimited": 3197,
      "load": 3198,
      "Ġterms": 3199,
      "Ġcommunication": 3200,
      "Ġaspects": 3201,
      "Ġsoftware": 3202,
      "Ġhumans": 3203,
      "Ġcitiz": 3204,
      "Ġembryo": 3205,
      "Here": 3206,
      "flow": 3207,
      "rew": 3208,
      "Ġcry": 3209,
      "ingu": 3210,
      "Ġbacter": 3211,
      "Ġmiddle": 3212,
      "Ġdate": 3213,
      "leep": 3214,
      "Ġhot": 3215,
      "Ġthus": 3216,
      "Ġnational": 3217,
      "Ġgiving": 3218,
      "raw": 3219,
      "Ġstim": 3220,
      "Ġalle": 3221,
      "Ġdead": 3222,
      "opy": 3223,
      "Ġweak": 3224,
      "Ġplatform": 3225,
      "ĠFr": 3226,
      "ĠNiger": 3227,
      "Ġresid": 3228,
      "Ġcompet": 3229,
      "Ġefficient": 3230,
      "Ġactions": 3231,
      "ĠKe": 3232,
      "Ġprint": 3233,
      "Ġcreation": 3234,
      "Ġinstit": 3235,
      "Ġ2023": 3236,
      "Ġboost": 3237,
      "ystems": 3238,
      "Ġdemonstr": 3239,
      "Ġappropriate": 3240,
      "He": 3241,
      "ai": 3242,
      "app": 3243,
      "Ġult": 3244,
      "Ġterm": 3245,
      "Ġcities": 3246,
      "Ġfast": 3247,
      "Ġforce": 3248,
      "amp": 3249,
      "iful": 3250,
      "odes": 3251,
      "Ġwhose": 3252,
      "Ġextern": 3253,
      "ĠPart": 3254,
      "ĠHigh": 3255,
      "Ġ14": 3256,
      "ecause": 3257,
      "Ġscen": 3258,
      "Ġpartners": 3259,
      "Ġpeace": 3260,
      "hens": 3261,
      "Ġartists": 3262,
      "Ġflood": 3263,
      "Ġeverything": 3264,
      "comes": 3265,
      "Ġbenefit": 3266,
      "Ġvisual": 3267,
      "ĠAndroid": 3268,
      "Ġcosts": 3269,
      "Ġpurchasing": 3270,
      "IT": 3271,
      "gy": 3272,
      "part": 3273,
      "Ġing": 3274,
      "Ġop": 3275,
      "Ġsn": 3276,
      "Ġsqu": 3277,
      "Ġcred": 3278,
      "Ġcross": 3279,
      "Ġpan": 3280,
      "Ġmis": 3281,
      "Ġdocu": 3282,
      "room": 3283,
      "ilage": 3284,
      "Ġlost": 3285,
      "illing": 3286,
      "Ġcomplic": 3287,
      "ĠEarth": 3288,
      "ĠRep": 3289,
      "ĠGod": 3290,
      "ĠOur": 3291,
      "Ġapply": 3292,
      "Ġperhaps": 3293,
      "Ġtraining": 3294,
      "Ġhealthcare": 3295,
      "apan": 3296,
      "Ġbecomes": 3297,
      "Ġcold": 3298,
      "Ġagency": 3299,
      "ublic": 3300,
      "akers": 3301,
      "oved": 3302,
      "Ġdivers": 3303,
      "Ġexperiences": 3304,
      "Ġdetect": 3305,
      "Ġtests": 3306,
      "Ġdefin": 3307,
      "roduction": 3308,
      "Ġconnected": 3309,
      "Ġtook": 3310,
      "Ġpassed": 3311,
      "Ġserious": 3312,
      "Ġlegal": 3313,
      "ĠEngine": 3314,
      "Ġmaintaining": 3315,
      "related": 3316,
      "Ġrespiration": 3317,
      "Ġinherit": 3318,
      "Ġcomponents": 3319,
      "Ġpsychological": 3320,
      "Ġecos": 3321,
      "Ġequipment": 3322,
      "iam": 3323,
      "mb": 3324,
      "sh": 3325,
      "su": 3326,
      "view": 3327,
      "Ġwid": 3328,
      "Ġfists": 3329,
      "Ġfarm": 3330,
      "Ġtown": 3331,
      "Ġtotal": 3332,
      "Ġdou": 3333,
      "ilies": 3334,
      "uries": 3335,
      "irit": 3336,
      "Ġord": 3337,
      "pper": 3338,
      "Ġcomfort": 3339,
      "Ġshap": 3340,
      "artment": 3341,
      "Ġmap": 3342,
      "agement": 3343,
      "Ġarm": 3344,
      "asses": 3345,
      "Ġsave": 3346,
      "Ġago": 3347,
      "ĠState": 3348,
      "Ġinfection": 3349,
      "Ġdecision": 3350,
      "Ġcover": 3351,
      "Ġtechnique": 3352,
      "Ġvalu": 3353,
      "Ġorganisms": 3354,
      "Ġminutes": 3355,
      "Ġveh": 3356,
      "Ġcontinues": 3357,
      "Ġachie": 3358,
      "Ġbroad": 3359,
      "Ġopportunity": 3360,
      "Ġbirds": 3361,
      "Ġrecommend": 3362,
      "Ġlarger": 3363,
      "Ġnutrients": 3364,
      "Ġtissue": 3365,
      "aisy": 3366,
      "CO": 3367,
      "ND": 3368,
      "PS": 3369,
      "US": 3370,
      "band": 3371,
      "iol": 3372,
      "rs": 3373,
      "water": 3374,
      "Ġtast": 3375,
      "Ġtend": 3376,
      "Ġsus": 3377,
      "Ġmom": 3378,
      "Ġste": 3379,
      "ift": 3380,
      "Ġdeb": 3381,
      "ĠMc": 3382,
      "ĠMod": 3383,
      "ĠMost": 3384,
      "esting": 3385,
      "ĠFrench": 3386,
      "Ġincorpor": 3387,
      "Ġcontext": 3388,
      "Ġ25": 3389,
      "Ġ29": 3390,
      "Ġfeature": 3391,
      "Ġgoes": 3392,
      "Ġquite": 3393,
      "Ġroot": 3394,
      "Ġagric": 3395,
      "Ġmodified": 3396,
      "Ġrelig": 3397,
      "Ġexpected": 3398,
      "Ġinterference": 3399,
      "Ġtreatments": 3400,
      "ĠPlan": 3401,
      "Ġoils": 3402,
      "Ġtemperatures": 3403,
      "Ġlimit": 3404,
      "Ġtrue": 3405,
      "Ġpollution": 3406,
      "Ġprinciples": 3407,
      "ependent": 3408,
      "Ġwireless": 3409,
      "Ġdatabase": 3410,
      "Ġcitizens": 3411,
      "80": 3412,
      "back": 3413,
      "mission": 3414,
      "sc": 3415,
      "inating": 3416,
      "ese": 3417,
      "Ġfru": 3418,
      "Ġmel": 3419,
      "Ġtox": 3420,
      "Ġhands": 3421,
      "usive": 3422,
      "urs": 3423,
      "ulating": 3424,
      "Ġstru": 3425,
      "ops": 3426,
      "quality": 3427,
      "ests": 3428,
      "Ġnote": 3429,
      "ultural": 3430,
      "ccoli": 3431,
      "Ġteac": 3432,
      "Ġteeth": 3433,
      "Ġoutcomes": 3434,
      "Ġevidence": 3435,
      "Ġaccom": 3436,
      "rought": 3437,
      "Ġactive": 3438,
      "Ġadding": 3439,
      "ĠYork": 3440,
      "akistan": 3441,
      "ĠAng": 3442,
      "Ġgenerate": 3443,
      "Ġearth": 3444,
      "Ġnumerous": 3445,
      "Ġdepression": 3446,
      "Ġorganizations": 3447,
      "Ġrisks": 3448,
      "roduct": 3449,
      "ĠArt": 3450,
      "Ġstandard": 3451,
      "Ġpersistence": 3452,
      "Ġstream": 3453,
      "Ġestablish": 3454,
      "Ġsulfur": 3455,
      ".)": 3456,
      "Why": 3457,
      "iance": 3458,
      "pe": 3459,
      "Ġx": 3460,
      "ero": 3461,
      "Ġsix": 3462,
      "itness": 3463,
      "Ġpet": 3464,
      "Ġbed": 3465,
      "Ġdedic": 3466,
      "Ġhyp": 3467,
      "Ġlands": 3468,
      "Ġnative": 3469,
      "uti": 3470,
      "raz": 3471,
      "Ġstates": 3472,
      "ĠSoc": 3473,
      "Ġconvers": 3474,
      "ĠCar": 3475,
      "Ġvac": 3476,
      "ĠBr": 3477,
      "ĠNot": 3478,
      "Ġperce": 3479,
      "Ġfeet": 3480,
      "ĠJapan": 3481,
      "tenance": 3482,
      "Ġspecif": 3483,
      "Ġoffice": 3484,
      "Ġpossib": 3485,
      "Ġfully": 3486,
      "Ġelse": 3487,
      "Ġincreasingly": 3488,
      "Ġestablished": 3489,
      "Ġfriends": 3490,
      "Ġfigure": 3491,
      "Ġdynamic": 3492,
      "Ġearlier": 3493,
      "Ġcognitive": 3494,
      "Ġdiversity": 3495,
      "AR": 3496,
      "Open": 3497,
      "den": 3498,
      "ius": 3499,
      "lands": 3500,
      "more": 3501,
      "ok": 3502,
      "point": 3503,
      "tion": 3504,
      "Ġfil": 3505,
      "Ġfaster": 3506,
      "Ġbooks": 3507,
      "Ġmilit": 3508,
      "Ġdiv": 3509,
      "Ġhomes": 3510,
      "Ġhtt": 3511,
      "Ġreve": 3512,
      "etry": 3513,
      "ows": 3514,
      "otyp": 3515,
      "iring": 3516,
      "Ġheight": 3517,
      "ĠCO": 3518,
      "ĠCount": 3519,
      "Ġalg": 3520,
      "Ġdisorder": 3521,
      "Ġdisplay": 3522,
      "Ġsoon": 3523,
      "Ġemphas": 3524,
      "lled": 3525,
      "ishing": 3526,
      "Ġcolon": 3527,
      "new": 3528,
      "Ġtransport": 3529,
      "ĠUnion": 3530,
      "vention": 3531,
      "Ġdirection": 3532,
      "Ġbuildings": 3533,
      "Ġbasis": 3534,
      "Ġvision": 3535,
      "Ġhandle": 3536,
      "Ġgraph": 3537,
      "Ġswe": 3538,
      "Ġseries": 3539,
      "Ġeffectively": 3540,
      "Ġconstant": 3541,
      "Ġflowers": 3542,
      "Ġcombination": 3543,
      "porary": 3544,
      "Ġcorrect": 3545,
      "Ġimmune": 3546,
      "ĠResearch": 3547,
      "Ġtalk": 3548,
      "Ġprofessional": 3549,
      "Ġexercise": 3550,
      "Ġinsect": 3551,
      "known": 3552,
      "Ġwrong": 3553,
      "Ġcartilage": 3554,
      "Over": 3555,
      "bol": 3556,
      "cers": 3557,
      "hood": 3558,
      "lusion": 3559,
      "set": 3560,
      "val": 3561,
      "vasive": 3562,
      "Ġtree": 3563,
      "Ġsav": 3564,
      "Ġsouth": 3565,
      "Ġsleep": 3566,
      "Ġbab": 3567,
      "Ġbodies": 3568,
      "icious": 3569,
      "Ġdang": 3570,
      "rogen": 3571,
      "Ġthr": 3572,
      "Ġthinking": 3573,
      "oming": 3574,
      "omod": 3575,
      "Ġge": 3576,
      "Ġstay": 3577,
      "ĠSun": 3578,
      "iff": 3579,
      "resh": 3580,
      "Ġvital": 3581,
      "Ġneut": 3582,
      "Ġrhyth": 3583,
      "Ġseeds": 3584,
      "ĠElect": 3585,
      "ĠEgy": 3586,
      "Ġspider": 3587,
      "active": 3588,
      "Ġcontact": 3589,
      "Ġcontains": 3590,
      "Ġcompared": 3591,
      "Ġemp": 3592,
      "Ġsignals": 3593,
      "Ġreliable": 3594,
      "ertil": 3595,
      "Ġregulations": 3596,
      "ĠKuti": 3597,
      "uck": 3598,
      "Ġinstru": 3599,
      "Ġsettings": 3600,
      "Ġeveryone": 3601,
      "Ġadvanced": 3602,
      "Ġproperly": 3603,
      "Ġidentity": 3604,
      "Ġfamilies": 3605,
      "Ġwrite": 3606,
      "Ġguide": 3607,
      "Ġapproaches": 3608,
      "Ġcapital": 3609,
      "Ġstandards": 3610,
      "Ġappearance": 3611,
      "Ġconcepts": 3612,
      "Ġharmful": 3613,
      "Ġaudience": 3614,
      "Ġfriend": 3615,
      "Ġmobile": 3616,
      "Ġsituation": 3617,
      "Ġchannel": 3618,
      "Ġspeak": 3619,
      "Ġcompanies": 3620,
      "ĠJohn": 3621,
      "Ġinflammation": 3622,
      "ĠSnake": 3623,
      "Ġexternal": 3624,
      "Ġinheritance": 3625,
      "ĠEgypt": 3626,
      "17": 3627,
      "AD": 3628,
      "Ex": 3629,
      "cious": 3630,
      "ched": 3631,
      "do": 3632,
      "ls": 3633,
      "overy": 3634,
      "round": 3635,
      "tical": 3636,
      "wh": 3637,
      "ino": 3638,
      "anu": 3639,
      "Ġpage": 3640,
      "Ġfem": 3641,
      "Ġfather": 3642,
      "Ġmention": 3643,
      "ashing": 3644,
      "Ġhon": 3645,
      "Ġegg": 3646,
      "ille": 3647,
      "used": 3648,
      "Ġnam": 3649,
      "verty": 3650,
      "Ġstories": 3651,
      "ĠPres": 3652,
      "Ġvag": 3653,
      "Ġchronic": 3654,
      "ĠMe": 3655,
      "ĠMake": 3656,
      "ials": 3657,
      "ocks": 3658,
      "Ġ13": 3659,
      "elling": 3660,
      "Ġincome": 3661,
      "ĠGMO": 3662,
      "ĠOff": 3663,
      "Ġcompre": 3664,
      "rupt": 3665,
      "Ġemail": 3666,
      "Ġquant": 3667,
      "ieties": 3668,
      "enched": 3669,
      "Ġpoverty": 3670,
      "vironments": 3671,
      "Ġdefault": 3672,
      "Ġplanet": 3673,
      "Ġengineering": 3674,
      "ĠAdditionally": 3675,
      "ĠEngland": 3676,
      "Ġmedications": 3677,
      "ĠRussian": 3678,
      "Ġbehavi": 3679,
      "Ġexisting": 3680,
      "ography": 3681,
      "ĠCanada": 3682,
      "ĠEducation": 3683,
      "itude": 3684,
      "14": 3685,
      "PC": 3686,
      "bre": 3687,
      "iate": 3688,
      "iverse": 3689,
      "och": 3690,
      "rm": 3691,
      "rim": 3692,
      "wide": 3693,
      "Ġi": 3694,
      "Ġtit": 3695,
      "rec": 3696,
      "Ġsort": 3697,
      "enge": 3698,
      "esign": 3699,
      "Ġwoman": 3700,
      "Ġbat": 3701,
      "ilk": 3702,
      "vey": 3703,
      "Ġnav": 3704,
      "Ġgames": 3705,
      "Ġisland": 3706,
      "ĠSim": 3707,
      "ela": 3708,
      "Ġhearing": 3709,
      "Ġcand": 3710,
      "ĠCur": 3711,
      "Ġvast": 3712,
      "Ġviol": 3713,
      "osition": 3714,
      "Ġenvironments": 3715,
      "ĠWar": 3716,
      "ĠHuman": 3717,
      "ached": 3718,
      "Ġseason": 3719,
      "ĠEach": 3720,
      "ĠRec": 3721,
      "Ġadjust": 3722,
      "Ġkit": 3723,
      "Ġsche": 3724,
      "ĠIts": 3725,
      "Ġrecently": 3726,
      "ĠStud": 3727,
      "Ġfunctions": 3728,
      "Ġpresence": 3729,
      "ĠEnvironment": 3730,
      "Ġdistinct": 3731,
      "ĠGenetic": 3732,
      "ĠAfrica": 3733,
      "Ġradiation": 3734,
      "azz": 3735,
      "Ġtillers": 3736,
      "Ġdetails": 3737,
      "Ġprofession": 3738,
      "Ġbelief": 3739,
      "Ġlinked": 3740,
      "Ġcounter": 3741,
      "ĠInternational": 3742,
      "Ġguidelines": 3743,
      "Ġseparate": 3744,
      "Ġprobably": 3745,
      "Ġbeautiful": 3746,
      "Ġbacteria": 3747,
      "Ġmilitary": 3748,
      "At": 3749,
      "Sony": 3750,
      "cription": 3751,
      "eut": 3752,
      "thes": 3753,
      "uge": 3754,
      "Ġtur": 3755,
      "inated": 3756,
      "Ġcivil": 3757,
      "itect": 3758,
      "Ġfight": 3759,
      "Ġburn": 3760,
      "eding": 3761,
      "ico": 3762,
      "entation": 3763,
      "Ġnight": 3764,
      "ided": 3765,
      "Ġpros": 3766,
      "Ġconsequ": 3767,
      "amental": 3768,
      "ĠMo": 3769,
      "ĠBel": 3770,
      "rency": 3771,
      "acity": 3772,
      "Ġplaced": 3773,
      "Ġadminist": 3774,
      "Ġcontribution": 3775,
      "ressive": 3776,
      "Ġoutput": 3777,
      "iece": 3778,
      "Ġpregn": 3779,
      "Ġtherefore": 3780,
      "Ġunderlying": 3781,
      "Ġperspect": 3782,
      "akes": 3783,
      "Ġattract": 3784,
      "Ġtechnical": 3785,
      "Ġgenerally": 3786,
      "ructure": 3787,
      "Ġwanted": 3788,
      "oxide": 3789,
      "Ġstarted": 3790,
      "Ġanti": 3791,
      "Ġchoice": 3792,
      "ĠAmerica": 3793,
      "ĠClass": 3794,
      "ashion": 3795,
      "poses": 3796,
      "Ġintroduced": 3797,
      "Ġchallenging": 3798,
      "Ġvitamins": 3799,
      "Ġwonder": 3800,
      "Ġdogs": 3801,
      "Ġrespiratory": 3802,
      "ersonal": 3803,
      "Ġsurvival": 3804,
      "Ġlifest": 3805,
      "Ġjourney": 3806,
      "Ġcrops": 3807,
      "Ġheavy": 3808,
      "Ġinitiatives": 3809,
      "Ġsugar": 3810,
      "Ġantibodies": 3811,
      "Ġstrugg": 3812,
      "omodoro": 3813,
      "Sonya": 3814,
      "EN": 3815,
      "En": 3816,
      "Karen": 3817,
      "Our": 3818,
      "Some": 3819,
      "book": 3820,
      "off": 3821,
      "uild": 3822,
      "áĥ": 3823,
      "Ġ*": 3824,
      "Ġsustain": 3825,
      "Ġwa": 3826,
      "Ġfiles": 3827,
      "Ġbio": 3828,
      "ented": 3829,
      "Ġeight": 3830,
      "Ġgold": 3831,
      "Ġbegan": 3832,
      "ĠAv": 3833,
      "unately": 3834,
      "ĠIm": 3835,
      "Ġaren": 3836,
      "elt": 3837,
      "Ġcoming": 3838,
      "ĠMore": 3839,
      "ĠBark": 3840,
      "osph": 3841,
      "ĠHis": 3842,
      "ĠHist": 3843,
      "ĠRed": 3844,
      "Ġshot": 3845,
      "ĠFl": 3846,
      "ellig": 3847,
      "ĠGl": 3848,
      "Ġgenre": 3849,
      "Ġtrack": 3850,
      "tee": 3851,
      "Ġagree": 3852,
      "ĠStre": 3853,
      "encies": 3854,
      "Ġattacks": 3855,
      "Ġgenerated": 3856,
      "Ġdiscovered": 3857,
      "Ġfoundation": 3858,
      "Ġdefined": 3859,
      "Ġplaying": 3860,
      "ĠPlants": 3861,
      "Ġconcent": 3862,
      "Ġsmaller": 3863,
      "ength": 3864,
      "Ġlottery": 3865,
      "Ġrepresents": 3866,
      "Ġnaturally": 3867,
      "Ġmulti": 3868,
      "airs": 3869,
      "Ġvirt": 3870,
      "Ġviruses": 3871,
      "Ġscientific": 3872,
      "Ġaffects": 3873,
      "Ġcompletely": 3874,
      "Ġrelationships": 3875,
      "Ġdiagnosis": 3876,
      "Ġabsorb": 3877,
      "Ġhabits": 3878,
      "Ġpromoting": 3879,
      "Ġadvantage": 3880,
      "ught": 3881,
      "Ġclinical": 3882,
      "Ġingred": 3883,
      "Ġvaluable": 3884,
      "70": 3885,
      "TP": 3886,
      "aks": 3887,
      "down": 3888,
      "ga": 3889,
      "Ġsent": 3890,
      "isc": 3891,
      "Ġpi": 3892,
      "orith": 3893,
      "Ġfix": 3894,
      "Ġfields": 3895,
      "Ġball": 3896,
      "Ġdim": 3897,
      "Ġdys": 3898,
      "Ġthird": 3899,
      "Ġren": 3900,
      "Ġnames": 3901,
      "Ġforward": 3902,
      "ĠAre": 3903,
      "ĠSet": 3904,
      "ĠSouth": 3905,
      "Ġconver": 3906,
      "Ġalthough": 3907,
      "ession": 3908,
      "Ġdeg": 3909,
      "Ġvary": 3910,
      "Ġchance": 3911,
      "ĠMy": 3912,
      "Ġselection": 3913,
      "Ġleave": 3914,
      "ĠEast": 3915,
      "Ġspirit": 3916,
      "ĠNations": 3917,
      "Ġclaim": 3918,
      "Ġkid": 3919,
      "onds": 3920,
      "Ġexpand": 3921,
      "Ġ196": 3922,
      "Ġsetting": 3923,
      "Ġpopulations": 3924,
      "rane": 3925,
      "Ġsignificance": 3926,
      "Ġpassword": 3927,
      "Ġfeeling": 3928,
      "Ġeducational": 3929,
      "Ġencoura": 3930,
      "Ġbright": 3931,
      "undred": 3932,
      "ĠScience": 3933,
      "ĠPrint": 3934,
      "Ġconnections": 3935,
      "Ġemotions": 3936,
      "Ġplastics": 3937,
      "Genetic": 3938,
      "Ġaims": 3939,
      "Ġfrequently": 3940,
      "Ġasked": 3941,
      "Ġsector": 3942,
      "Ġrebate": 3943,
      "ĠDepartment": 3944,
      "razil": 3945,
      "HR": 3946,
      "JO": 3947,
      "Re": 3948,
      "Us": 3949,
      "aj": 3950,
      "nes": 3951,
      "ned": 3952,
      "onic": 3953,
      "Ġtherm": 3954,
      "erals": 3955,
      "Ġcourage": 3956,
      "Ġwound": 3957,
      "Ġwild": 3958,
      "Ġpick": 3959,
      "Ġpiece": 3960,
      "oration": 3961,
      "Ġflex": 3962,
      "Ġfresh": 3963,
      "Ġbone": 3964,
      "Ġbrought": 3965,
      "Ġmo": 3966,
      "Ġmiss": 3967,
      "Ġhun": 3968,
      "Ġnar": 3969,
      "celer": 3970,
      "ĠTra": 3971,
      "chain": 3972,
      "ulic": 3973,
      "raulic": 3974,
      "ĠACH": 3975,
      "Ġstages": 3976,
      "ĠSol": 3977,
      "Ġheld": 3978,
      "teries": 3979,
      "istry": 3980,
      "Ġchlor": 3981,
      "ĠWest": 3982,
      "ĠDuring": 3983,
      "Ġsho": 3984,
      "Ġships": 3985,
      "Ġ16": 3986,
      "alled": 3987,
      "ĠInc": 3988,
      "âĢĿ.": 3989,
      "erving": 3990,
      "Ġacids": 3991,
      "Ġgenerations": 3992,
      "oyal": 3993,
      "Ġmuscle": 3994,
      "Ġmaintenance": 3995,
      "Ġsolution": 3996,
      "Ġcentral": 3997,
      "Ġ2019": 3998,
      "ĠProg": 3999,
      "Ġreceived": 4000,
      "Ġcombat": 4001,
      "ĠSeven": 4002,
      "Ġrunning": 4003,
      "spring": 4004,
      "Ġcircular": 4005,
      "Ġlaws": 4006,
      "Ġsuffer": 4007,
      "Ġanimals": 4008,
      "Ġnegative": 4009,
      "Ġholid": 4010,
      "Ġteaching": 4011,
      "unicip": 4012,
      "ashington": 4013,
      "Ġprofessionals": 4014,
      "12": 4015,
      "Dis": 4016,
      "QL": 4017,
      "RA": 4018,
      "bi": 4019,
      "cles": 4020,
      "ii": 4021,
      "lation": 4022,
      "rish": 4023,
      "xim": 4024,
      "Â°": 4025,
      "Ġking": 4026,
      "Ġten": 4027,
      "rees": 4028,
      "aly": 4029,
      "Ġfest": 4030,
      "Ġfasc": 4031,
      "Ġinput": 4032,
      "Ġmath": 4033,
      "Ġmox": 4034,
      "enty": 4035,
      "astern": 4036,
      "Ġhundred": 4037,
      "ĠTem": 4038,
      "Ġfort": 4039,
      "ĠAND": 4040,
      "Ġstop": 4041,
      "ĠImp": 4042,
      "Ġhealing": 4043,
      "resins": 4044,
      "ĠMA": 4045,
      "oses": 4046,
      "Ġleaf": 4047,
      "ĠRE": 4048,
      "ĠFirst": 4049,
      "ĠFela": 4050,
      "Ġintellig": 4051,
      "Ġadequ": 4052,
      "ello": 4053,
      "ĠInt": 4054,
      "Ġclenched": 4055,
      "Ġargu": 4056,
      "Ġhelped": 4057,
      "anging": 4058,
      "ubric": 4059,
      "Ġpoly": 4060,
      "Ġvari": 4061,
      "Ġexposure": 4062,
      "Ġinformed": 4063,
      "Ġdiscl": 4064,
      "Ġpurposes": 4065,
      "Ġfollowed": 4066,
      "Ġaware": 4067,
      "Ġserve": 4068,
      "Ġcontributions": 4069,
      "Ġcapacity": 4070,
      "Ġoxid": 4071,
      "Ġsuccessful": 4072,
      "Ġhimself": 4073,
      "Ġoptimal": 4074,
      "Ġlanguages": 4075,
      "Ġrecommended": 4076,
      "iliar": 4077,
      "Ġdrugs": 4078,
      "Ġmonitoring": 4079,
      "Ġexactly": 4080,
      "Ġbillion": 4081,
      "Ġalgorith": 4082,
      "MS": 4083,
      "With": 4084,
      "fri": 4085,
      "iers": 4086,
      "mosp": 4087,
      "page": 4088,
      "wise": 4089,
      "ðŁ": 4090,
      "Ġtour": 4091,
      "Ġtips": 4092,
      "era": 4093,
      "ato": 4094,
      "Ġod": 4095,
      "Ġsil": 4096,
      "Ġsold": 4097,
      "Ġfa": 4098,
      "Ġband": 4099,
      "Ġinj": 4100,
      "Ġmother": 4101,
      "Ġmaster": 4102,
      "Ġdress": 4103,
      "Ġthous": 4104,
      "Ġreality": 4105,
      "Ġlines": 4106,
      "Ġlooks": 4107,
      "Ġnorth": 4108,
      "ceed": 4109,
      "igation": 4110,
      "ĠII": 4111,
      "Ġitem": 4112,
      "ĠChe": 4113,
      "Ġalone": 4114,
      "ĠPol": 4115,
      "ĠPomodoro": 4116,
      "Ġweather": 4117,
      "estic": 4118,
      "umb": 4119,
      "Ġneuro": 4120,
      "ĠHol": 4121,
      "Ġru": 4122,
      "Ġrates": 4123,
      "Ġplaces": 4124,
      "ĠNeed": 4125,
      "Ġcontract": 4126,
      "ĠThus": 4127,
      "Ġhelping": 4128,
      "Ġeffort": 4129,
      "Ġrot": 4130,
      "Ġroots": 4131,
      "Ġrepe": 4132,
      "Ġoffspring": 4133,
      "Ġobtain": 4134,
      "Ġacceler": 4135,
      "Ġcoast": 4136,
      "Ġgets": 4137,
      "Ġentities": 4138,
      "Ġdiscover": 4139,
      "Ġdepos": 4140,
      "Ġallowed": 4141,
      "Ġformat": 4142,
      "Ġadvice": 4143,
      "comp": 4144,
      "Ġbask": 4145,
      "Ġinvolve": 4146,
      "Ġinteresting": 4147,
      "Ġinterested": 4148,
      "Another": 4149,
      "Ġtherapies": 4150,
      "Ġestim": 4151,
      "Ġdrive": 4152,
      "Ġchallenge": 4153,
      "Ġstrategy": 4154,
      "Ġfreed": 4155,
      "ĠPrinc": 4156,
      "Ġemployees": 4157,
      "ĠGoal": 4158,
      "ĠComp": 4159,
      "Ġinherited": 4160,
      "Ġchemicals": 4161,
      "Ġhistorical": 4162,
      "ĠWilliam": 4163,
      "Ġbanks": 4164,
      "Ġvegetables": 4165,
      "stronomy": 4166,
      "rastructure": 4167,
      "flower": 4168,
      "Ġdedicated": 4169,
      "Ġlandsc": 4170,
      "Ġcomprehens": 4171,
      "16": 4172,
      "Let": 4173,
      "MA": 4174,
      "dom": 4175,
      "live": 4176,
      "ued": 4177,
      "work": 4178,
      "xid": 4179,
      "Ġ'": 4180,
      "Ġ0": 4181,
      "Ġu": 4182,
      "Ġir": 4183,
      "hether": 4184,
      "rest": 4185,
      "enced": 4186,
      "Ġpric": 4187,
      "Ġpump": 4188,
      "Ġfine": 4189,
      "Ġmiles": 4190,
      "Ġmunicip": 4191,
      "Ġnation": 4192,
      "Ġnuc": 4193,
      "Ġgot": 4194,
      "cember": 4195,
      "Ġformer": 4196,
      "uration": 4197,
      "racy": 4198,
      "ĠAug": 4199,
      "see": 4200,
      "Ġstage": 4201,
      "ĠSa": 4202,
      "oday": 4203,
      "advant": 4204,
      "ĠPakistan": 4205,
      "ĠHy": 4206,
      "Ġimag": 4207,
      "Ġsea": 4208,
      "Ġseed": 4209,
      "ĠEven": 4210,
      "Ġunit": 4211,
      "ĠFound": 4212,
      "ĠGu": 4213,
      "ĠUp": 4214,
      "Ġmanip": 4215,
      "Ġperfect": 4216,
      "Ġscale": 4217,
      "ief": 4218,
      "lications": 4219,
      "Ġroll": 4220,
      "obic": 4221,
      "Ġraised": 4222,
      "Ġregard": 4223,
      "Ġvariation": 4224,
      "Ġworked": 4225,
      "Ġfloor": 4226,
      "Ġmusical": 4227,
      "Ġvalid": 4228,
      "Ġprotocol": 4229,
      "Ġgoods": 4230,
      "Ġafford": 4231,
      "Ġstarting": 4232,
      "there": 4233,
      "pared": 4234,
      "Ġtherapeut": 4235,
      "Ġ2021": 4236,
      "ynx": 4237,
      "Ġamounts": 4238,
      "brid": 4239,
      "Ġrepresented": 4240,
      "Ġcharacteristics": 4241,
      "Ġtrying": 4242,
      "Ġoriginal": 4243,
      "ĠUsing": 4244,
      "Ġdescribed": 4245,
      "Ġdrug": 4246,
      "Ġcardi": 4247,
      "ĠTrans": 4248,
      "efficient": 4249,
      "Ġexcessive": 4250,
      "ĠPOJO": 4251,
      "Ġanswer": 4252,
      "Ġfundamental": 4253,
      "Ġcredit": 4254,
      "Ġlifestyle": 4255,
      "Do": 4256,
      "EL": 4257,
      "Spid": 4258,
      "ban": 4259,
      "col": 4260,
      "come": 4261,
      "cking": 4262,
      "ded": 4263,
      "ford": 4264,
      "iot": 4265,
      "kin": 4266,
      "name": 4267,
      "pare": 4268,
      "Ġ,": 4269,
      "Ġign": 4270,
      "atural": 4271,
      "Ġfost": 4272,
      "Ġfoot": 4273,
      "Ġbron": 4274,
      "Ġbox": 4275,
      "Ġbones": 4276,
      "Ġmic": 4277,
      "icking": 4278,
      "arant": 4279,
      "Ġhuge": 4280,
      "iding": 4281,
      "uth": 4282,
      "ulin": 4283,
      "ĠApr": 4284,
      "Ġdeploy": 4285,
      "ĠPar": 4286,
      "Ġenab": 4287,
      "ĠWater": 4288,
      "ums": 4289,
      "Ġsevere": 4290,
      "Ġatmosp": 4291,
      "ĠRad": 4292,
      "Ġunc": 4293,
      "ĠFood": 4294,
      "Ġmaps": 4295,
      "ĠGreen": 4296,
      "ferences": 4297,
      "Ġmeals": 4298,
      "Ġbutter": 4299,
      "Ġhelpful": 4300,
      "Ġtrig": 4301,
      "Ġcommand": 4302,
      "lick": 4303,
      "Ġcolors": 4304,
      "Ġinfrastructure": 4305,
      "Ġphone": 4306,
      "ĠAnt": 4307,
      "Ġarticles": 4308,
      "Ġenter": 4309,
      "iction": 4310,
      "ometimes": 4311,
      "ĠPlay": 4312,
      "Ġminerals": 4313,
      "Ġchanged": 4314,
      "ework": 4315,
      "ĠProt": 4316,
      "Ġbelong": 4317,
      "Ġkeeping": 4318,
      "ĠDecember": 4319,
      "Ġ2022": 4320,
      "Ġconstruct": 4321,
      "Ġforeign": 4322,
      "Ġcontainer": 4323,
      "Ġpayment": 4324,
      "Ġbroccoli": 4325,
      "Ġhappen": 4326,
      "Ġstructures": 4327,
      "Ġdetailed": 4328,
      "Ġsmooth": 4329,
      "Ġaccurate": 4330,
      "Ġdestro": 4331,
      "ĠAustralia": 4332,
      "Ġexecut": 4333,
      "Ġalternative": 4334,
      "Ġpartnership": 4335,
      "Ġecosystems": 4336,
      "ĠSocial": 4337,
      "Ġspecifically": 4338,
      "Ġnamed": 4339,
      "ĠStreet": 4340,
      "ĠProgram": 4341,
      "Spiders": 4342,
      ",\"": 4343,
      "IL": 4344,
      "More": 4345,
      "ares": 4346,
      "bor": 4347,
      "eper": 4348,
      "ham": 4349,
      "ipp": 4350,
      "ipl": 4351,
      "lin": 4352,
      "life": 4353,
      "normal": 4354,
      "ship": 4355,
      "wo": 4356,
      "yles": 4357,
      "á¸": 4358,
      "reland": 4359,
      "Ġtheory": 4360,
      "Ġcere": 4361,
      "esh": 4362,
      "aled": 4363,
      "Ġbow": 4364,
      "Ġbra": 4365,
      "Ġbott": 4366,
      "Ġrepl": 4367,
      "using": 4368,
      "Ġlib": 4369,
      "Ġlynx": 4370,
      "Ġnan": 4371,
      "iders": 4372,
      "state": 4373,
      "urt": 4374,
      "igate": 4375,
      "ula": 4376,
      "Ġstore": 4377,
      "Ġstyle": 4378,
      "Ġconven": 4379,
      "elesc": 4380,
      "ĠPo": 4381,
      "ĠPut": 4382,
      "Ġvict": 4383,
      "Ġwealth": 4384,
      "ĠMon": 4385,
      "ĠMus": 4386,
      "ested": 4387,
      "ĠBecause": 4388,
      "Ġrat": 4389,
      "Ġimages": 4390,
      "ĠEth": 4391,
      "ĠRom": 4392,
      "ĠDon": 4393,
      "Ġspot": 4394,
      "ĠFe": 4395,
      "oga": 4396,
      "Ġcontem": 4397,
      "ĠLake": 4398,
      "Ġmanaging": 4399,
      "Ġindex": 4400,
      "apter": 4401,
      "Ġbecoming": 4402,
      "ĠJPA": 4403,
      "Ġrob": 4404,
      "Ġreput": 4405,
      "Ġdifferences": 4406,
      "Ġrelax": 4407,
      "Ġgrid": 4408,
      "erto": 4409,
      "Ġregions": 4410,
      "Ġphosph": 4411,
      "Ġfungal": 4412,
      "Ġprocessing": 4413,
      "Ġreduced": 4414,
      "Ġsurround": 4415,
      "ancing": 4416,
      "Ġsett": 4417,
      "Ġlocated": 4418,
      "Ġextend": 4419,
      "Ġchanging": 4420,
      "Ġchoices": 4421,
      "Ġequal": 4422,
      "Ġcausing": 4423,
      "Ġsymbol": 4424,
      "Ġsupplement": 4425,
      "Ġ2020": 4426,
      "ĠOnce": 4427,
      "Ġimmedi": 4428,
      "Ġaccounts": 4429,
      "Ġoccurs": 4430,
      "spec": 4431,
      "Ġsensitive": 4432,
      "Ġvirus": 4433,
      "Ġprogramming": 4434,
      "Ġcleaning": 4435,
      "Ġregularly": 4436,
      "ĠOrgan": 4437,
      "Ġgenetically": 4438,
      "Ġload": 4439,
      "Ġproteins": 4440,
      "Ġlabel": 4441,
      "Ġanimal": 4442,
      "Ġsummer": 4443,
      "Ġblockchain": 4444,
      "going": 4445,
      "Ġpreviously": 4446,
      "Ġslices": 4447,
      "Ġapplied": 4448,
      "ocratic": 4449,
      "Ġinstitutions": 4450,
      "anuary": 4451,
      "Ġpregnancy": 4452,
      "ĠFoundation": 4453,
      "ED": 4454,
      "OO": 4455,
      "RT": 4456,
      "SDG": 4457,
      "TE": 4458,
      "cil": 4459,
      "cast": 4460,
      "ipping": 4461,
      "ipped": 4462,
      "Ġtask": 4463,
      "requ": 4464,
      "onom": 4465,
      "atiel": 4466,
      "isf": 4467,
      "isation": 4468,
      "orter": 4469,
      "orial": 4470,
      "orage": 4471,
      "Ġfit": 4472,
      "Ġfirm": 4473,
      "iced": 4474,
      "Ġder": 4475,
      "roll": 4476,
      "Ġhost": 4477,
      "Ġhorm": 4478,
      "ett": 4479,
      "Ġlength": 4480,
      "Ġnor": 4481,
      "ĠAc": 4482,
      "Ġprohib": 4483,
      "unction": 4484,
      "ĠIreland": 4485,
      "ĠSQL": 4486,
      "ĠCoun": 4487,
      "iest": 4488,
      "ĠTheir": 4489,
      "Ġvibr": 4490,
      "Ġchurch": 4491,
      "ĠBrazil": 4492,
      "osc": 4493,
      "ĠWashington": 4494,
      "rome": 4495,
      "acing": 4496,
      "ĠEd": 4497,
      "Ġsharing": 4498,
      "Ġmag": 4499,
      "ffic": 4500,
      "ĠNG": 4501,
      "ĠNe": 4502,
      "Ġevol": 4503,
      "ologist": 4504,
      "ĠJust": 4505,
      "Ġcolle": 4506,
      "Ġcolumn": 4507,
      "Ġroom": 4508,
      "Ġrock": 4509,
      "Ġofficial": 4510,
      "ontal": 4511,
      "ĠKh": 4512,
      "ĠChina": 4513,
      "Ġprice": 4514,
      "Ġtranspa": 4515,
      "Ġcool": 4516,
      "Ġcarried": 4517,
      "Ġremote": 4518,
      "Ġprescrib": 4519,
      "Ġleads": 4520,
      "ioxid": 4521,
      "Ġfactor": 4522,
      "Ġconclusion": 4523,
      "Ġready": 4524,
      "ockatiel": 4525,
      "Ġmonth": 4526,
      "Ġimpacts": 4527,
      "ĠAmericans": 4528,
      "ĠAdd": 4529,
      "ienced": 4530,
      "Ġinternal": 4531,
      "Ġdeliver": 4532,
      "Ġreview": 4533,
      "Ġrepresentation": 4534,
      "Ġmindful": 4535,
      "Ġradical": 4536,
      "Ġfacilit": 4537,
      "Ġindustries": 4538,
      "Ġcomponent": 4539,
      "Ġsumm": 4540,
      "grad": 4541,
      "Ġhydraulic": 4542,
      "Ġmachine": 4543,
      "Ġfluid": 4544,
      "Ġfuel": 4545,
      "ĠKeep": 4546,
      "Ġtoxic": 4547,
      "Ġhttps": 4548,
      "Ġcomprehensive": 4549,
      "Ġbronze": 4550,
      "Acc": 4551,
      "Ph": 4552,
      "Sh": 4553,
      "gl": 4554,
      "human": 4555,
      "mark": 4556,
      "mitted": 4557,
      "rum": 4558,
      "uff": 4559,
      "volution": 4560,
      "wor": 4561,
      "yl": 4562,
      "Ġ/": 4563,
      "Ġtou": 4564,
      "Ġtas": 4565,
      "Ġtren": 4566,
      "invasive": 4567,
      "head": 4568,
      "hene": 4569,
      "aters": 4570,
      "Ġwall": 4571,
      "Ġphen": 4572,
      "Ġpark": 4573,
      "Ġfear": 4574,
      "Ġfats": 4575,
      "Ġfashion": 4576,
      "Ġbag": 4577,
      "Ġbatt": 4578,
      "Ġmid": 4579,
      "Ġda": 4580,
      "Ġreference": 4581,
      "Ġlose": 4582,
      "Ġgod": 4583,
      "iration": 4584,
      "Ġhear": 4585,
      "anta": 4586,
      "resp": 4587,
      "ĠBi": 4588,
      "Ġenz": 4589,
      "Ġrules": 4590,
      "Ġseat": 4591,
      "Ġuniverse": 4592,
      "ustion": 4593,
      "allow": 4594,
      "ĠGerm": 4595,
      "ĠNorth": 4596,
      "ĠOld": 4597,
      "ĠLear": 4598,
      "eces": 4599,
      "Ġclos": 4600,
      "Ġhealthier": 4601,
      "apers": 4602,
      "ĠJanuary": 4603,
      "Ġblue": 4604,
      "Ġrapid": 4605,
      "Ġassum": 4606,
      "Ġacqu": 4607,
      "Ġexpression": 4608,
      "Ġdioxide": 4609,
      "Ġexperienced": 4610,
      "ventions": 4611,
      "Ġsurpr": 4612,
      "Ġsupports": 4613,
      "Ġseek": 4614,
      "Ġdepending": 4615,
      "Ġpossess": 4616,
      "commer": 4617,
      "Ġdistribution": 4618,
      "ĠProf": 4619,
      "Ġgovernments": 4620,
      "espite": 4621,
      "And": 4622,
      "ĠAlso": 4623,
      "ĠTherefore": 4624,
      "Ġconfig": 4625,
      "Ġhyper": 4626,
      "Ġcombined": 4627,
      "Ġcapabilities": 4628,
      "Ġreleased": 4629,
      "However": 4630,
      "Ġterrit": 4631,
      "Ġweeks": 4632,
      "Ġvolume": 4633,
      "ascular": 4634,
      "ĠBlack": 4635,
      "Ġroutine": 4636,
      "Ġhabit": 4637,
      "Ġversion": 4638,
      "Ġanalyz": 4639,
      "ĠAccording": 4640,
      "Ġsongs": 4641,
      "Ġelectrical": 4642,
      "Ġvoice": 4643,
      "Ġprivate": 4644,
      "Ġocean": 4645,
      "Ġhorse": 4646,
      "Ġvulnerable": 4647,
      "Ġmanufacture": 4648,
      "Ġscanning": 4649,
      "Ġflooding": 4650,
      "Ġagriculture": 4651,
      "Ġteacher": 4652,
      "Ġconsequences": 4653,
      "friend": 4654,
      "Ġtherapeutic": 4655,
      "ĠApril": 4656,
      "No": 4657,
      "Pl": 4658,
      "TI": 4659,
      "curity": 4660,
      "iant": 4661,
      "iencing": 4662,
      "ux": 4663,
      "uerto": 4664,
      "Ġiron": 4665,
      "Ġ...": 4666,
      "Ġille": 4667,
      "reed": 4668,
      "Ġcats": 4669,
      "esium": 4670,
      "Ġpow": 4671,
      "Ġfro": 4672,
      "Ġfair": 4673,
      "Ġfrag": 4674,
      "Ġfelt": 4675,
      "Ġbase": 4676,
      "Ġtom": 4677,
      "Ġtow": 4678,
      "Ġhus": 4679,
      "eters": 4680,
      "Ġlived": 4681,
      "unge": 4682,
      "Ġstored": 4683,
      "Ġoral": 4684,
      "ĠCa": 4685,
      "ĠThen": 4686,
      "quar": 4687,
      "Ġseems": 4688,
      "ĠEs": 4689,
      "ogue": 4690,
      "ĠOct": 4691,
      "âĢĿ,": 4692,
      "Ġapps": 4693,
      "Ġbutton": 4694,
      "Ġtraffic": 4695,
      "rowing": 4696,
      "Ġqual": 4697,
      "Ġagg": 4698,
      "Ġactual": 4699,
      "ovember": 4700,
      "ĠChar": 4701,
      "ĠAnother": 4702,
      "Ġobvious": 4703,
      "Ġtransform": 4704,
      "Ġrespond": 4705,
      "Ġtested": 4706,
      "Ġexplains": 4707,
      "Ġpair": 4708,
      "Ġformed": 4709,
      "ĠRead": 4710,
      "Ġaccessible": 4711,
      "Ġcenturies": 4712,
      "Ġcalls": 4713,
      "Ġguarant": 4714,
      "Ġpaint": 4715,
      "Ġcreative": 4716,
      "Ans": 4717,
      "Ġreports": 4718,
      "Ġsupplements": 4719,
      "Ġpresentation": 4720,
      "Ġinfluenced": 4721,
      "Ġaddressing": 4722,
      "Ġdidn": 4723,
      "print": 4724,
      "ĠUSA": 4725,
      "Ġmeasurement": 4726,
      "Ġcurrently": 4727,
      "Ġcircum": 4728,
      "attoo": 4729,
      "Ġillness": 4730,
      "Ġ90": 4731,
      "Ġsuggests": 4732,
      "Ġwidely": 4733,
      "Ġlargest": 4734,
      "Ġautomatically": 4735,
      "ĠInternet": 4736,
      "Ġcollaboration": 4737,
      "Ġproposed": 4738,
      "Ġeventually": 4739,
      "Ġmessages": 4740,
      "Ġwatch": 4741,
      "Ġarchitect": 4742,
      "Ġreferred": 4743,
      "ĠAssoci": 4744,
      "Ġresidents": 4745,
      "ĠAnglo": 4746,
      "Ġinsects": 4747,
      "ĠOffice": 4748,
      "Ġcandid": 4749,
      "Ġingredients": 4750,
      "After": 4751,
      "Be": 4752,
      "DA": 4753,
      "Is": 4754,
      "JB": 4755,
      "bl": 4756,
      "hab": 4757,
      "iabetes": 4758,
      "medi": 4759,
      "ns": 4760,
      "rans": 4761,
      "Ġ#": 4762,
      "Ġtim": 4763,
      "Ġtall": 4764,
      "erate": 4765,
      "itute": 4766,
      "Ġwent": 4767,
      "Ġwalls": 4768,
      "ingly": 4769,
      "Ġmount": 4770,
      "Ġtoward": 4771,
      "roph": 4772,
      "Ġthor": 4773,
      "Ġgar": 4774,
      "olf": 4775,
      "oles": 4776,
      "race": 4777,
      "ĠAut": 4778,
      "Ġstorm": 4779,
      "Ġstands": 4780,
      "ĠIN": 4781,
      "ĠSan": 4782,
      "ĠSince": 4783,
      "ĠCong": 4784,
      "ĠCategory": 4785,
      "ects": 4786,
      "Ġexhib": 4787,
      "ĠWell": 4788,
      "Ġneigh": 4789,
      "ocation": 4790,
      "Ġimper": 4791,
      "ĠRights": 4792,
      "Ġnothing": 4793,
      "ĠGreat": 4794,
      "ĠInter": 4795,
      "ager": 4796,
      "Ġ24": 4797,
      "Ġdoctors": 4798,
      "ĠUK": 4799,
      "rief": 4800,
      "Ġcommer": 4801,
      "Ġconservation": 4802,
      "Ġtail": 4803,
      "Ġaging": 4804,
      "ĠYear": 4805,
      "Ġrare": 4806,
      "Ġoffering": 4807,
      "Ġdecades": 4808,
      "Ġcoord": 4809,
      "Ġartist": 4810,
      "Ġnovel": 4811,
      "Ġplayed": 4812,
      "Ġorganic": 4813,
      "Ġrefers": 4814,
      "Ġshowed": 4815,
      "Ġ2015": 4816,
      "Ġ2017": 4817,
      "Ġpotentially": 4818,
      "Ġ60": 4819,
      "Ġcreativity": 4820,
      "Ġfunctioning": 4821,
      "Ġserver": 4822,
      "Ġassociations": 4823,
      "Ġlots": 4824,
      "Ġcapable": 4825,
      "ĠSea": 4826,
      "Ġteams": 4827,
      "Ġlimits": 4828,
      "Ġcomputers": 4829,
      "Ġrelevant": 4830,
      "Ġelim": 4831,
      "Ġradio": 4832,
      "Ġtreated": 4833,
      "Ġcommunicate": 4834,
      "aneously": 4835,
      "Ġauthorities": 4836,
      "Ġprinciple": 4837,
      "Ġzero": 4838,
      "ĠChristian": 4839,
      "Ġnutrient": 4840,
      "Ġmotor": 4841,
      "Ġconducted": 4842,
      "Ġdecrease": 4843,
      "Ġlatest": 4844,
      "Ġfavor": 4845,
      "ĠPaper": 4846,
      "Ġopin": 4847,
      "Ġtaste": 4848,
      "Ġmoment": 4849,
      "Ġreligious": 4850,
      "Ġaccompl": 4851,
      "Ġsweet": 4852,
      "thesis": 4853,
      "Ġadequate": 4854,
      "Ġalgorithms": 4855,
      "ĠAugust": 4856,
      "Ġcircumst": 4857,
      "22": 4858,
      "68": 4859,
      "Ar": 4860,
      "All": 4861,
      "Can": 4862,
      "PTC": 4863,
      "VID": 4864,
      "Wh": 4865,
      "ball": 4866,
      "born": 4867,
      "craft": 4868,
      "tar": 4869,
      "then": 4870,
      "hel": 4871,
      "Ġov": 4872,
      "Ġsan": 4873,
      "Ġsight": 4874,
      "Ġsounds": 4875,
      "enous": 4876,
      "Ġfr": 4877,
      "Ġbound": 4878,
      "Ġbrows": 4879,
      "Ġmale": 4880,
      "Ġmuseum": 4881,
      "Ġdark": 4882,
      "Ġdye": 4883,
      "enth": 4884,
      "Ġgast": 4885,
      "Ġgave": 4886,
      "Ġyellow": 4887,
      "Ġprol": 4888,
      "unch": 4889,
      "Ġstability": 4890,
      "Ġstorage": 4891,
      "ĠSanta": 4892,
      "tering": 4893,
      "ĠMarch": 4894,
      "ĠBen": 4895,
      "ĠWhether": 4896,
      "andom": 4897,
      "Ġriver": 4898,
      "Ġrule": 4899,
      "ĠDaisy": 4900,
      "Ġmaxim": 4901,
      "Ġdisabilities": 4902,
      "Ġdisadvant": 4903,
      "Ġincl": 4904,
      "ĠGet": 4905,
      "ĠNovember": 4906,
      "ĠLab": 4907,
      "astic": 4908,
      "riage": 4909,
      "Ġindentation": 4910,
      "Ġtraditions": 4911,
      "Ġprefer": 4912,
      "Ġprepared": 4913,
      "Ġconscious": 4914,
      "Ġcolour": 4915,
      "Ġroads": 4916,
      "Ġrelatively": 4917,
      "ĠVerm": 4918,
      "othing": 4919,
      "Ġmetab": 4920,
      "Ġexposed": 4921,
      "ividuals": 4922,
      "Ġworldwide": 4923,
      "Ġdepends": 4924,
      "Ġproviders": 4925,
      "Ġextended": 4926,
      "raphene": 4927,
      "Ġconclud": 4928,
      "Ġrising": 4929,
      "Ġcultiv": 4930,
      "Ġensures": 4931,
      "Ġbeneficial": 4932,
      "ĠQue": 4933,
      "Ġpaintings": 4934,
      "Ġcarefully": 4935,
      "Ġconflic": 4936,
      "Ġmathem": 4937,
      "Ġlegis": 4938,
      "urthermore": 4939,
      "Ġelev": 4940,
      "Ġcontaining": 4941,
      "Ġhappens": 4942,
      "Ġturned": 4943,
      "Ġprotecting": 4944,
      "Ġfatty": 4945,
      "Ġpollut": 4946,
      "Ġcutting": 4947,
      "Ġcontinuous": 4948,
      "Ġfrequency": 4949,
      "Ġsituations": 4950,
      "Ġwinter": 4951,
      "Ġspeeds": 4952,
      "Ġinnovative": 4953,
      "Ġgaming": 4954,
      "Ġadvantages": 4955,
      "Ġfeedback": 4956,
      "Ġhouseholds": 4957,
      "Ġhousing": 4958,
      "weight": 4959,
      "Ġinstructions": 4960,
      "Ġcrypt": 4961,
      "Ġfruits": 4962,
      "roductive": 4963,
      "Ġneutral": 4964,
      "Ġrhythms": 4965,
      "Ġfemale": 4966,
      "Ġvaginal": 4967,
      "Ġnarrow": 4968,
      "thereum": 4969,
      "Ġreputation": 4970,
      "Ġtasks": 4971,
      "respond": 4972,
      "13": 4973,
      "AC": 4974,
      "Ab": 4975,
      "LE": 4976,
      "bling": 4977,
      "cript": 4978,
      "dent": 4979,
      "free": 4980,
      "faces": 4981,
      "no": 4982,
      "tage": 4983,
      "za": 4984,
      "Ġtelesc": 4985,
      "inder": 4986,
      "Ġwood": 4987,
      "Ġpen": 4988,
      "Ġplease": 4989,
      "orge": 4990,
      "Ġfing": 4991,
      "Ġfertil": 4992,
      "Ġdrop": 4993,
      "lean": 4994,
      "Ġharv": 4995,
      "Ġreact": 4996,
      "omach": 4997,
      "Ġlit": 4998,
      "Ġlic": 4999,
      "Ġgives": 5000,
      "ste": 5001,
      "stream": 5002,
      "othes": 5003,
      "ĠAI": 5004,
      "Ġstra": 5005,
      "ĠSur": 5006,
      "iffe": 5007,
      "Ġexch": 5008,
      "ĠPuerto": 5009,
      "Ġchrom": 5010,
      "ĠMiddle": 5011,
      "ĠBell": 5012,
      "ĠHun": 5013,
      "ibustion": 5014,
      "Ġleaving": 5015,
      "ĠEJB": 5016,
      "ĠFore": 5017,
      "Ġabnormal": 5018,
      "ightly": 5019,
      "Ġworth": 5020,
      "Ġdiss": 5021,
      "ĠGames": 5022,
      "ought": 5023,
      "ipe": 5024,
      "Ġtheme": 5025,
      "Ġtruth": 5026,
      "Ġaccident": 5027,
      "Ġfunds": 5028,
      "Ġtransmission": 5029,
      "Ġcoverage": 5030,
      "Ġdiam": 5031,
      "Ġexpert": 5032,
      "efore": 5033,
      "Ġbuy": 5034,
      "Ġincreases": 5035,
      "Ġinteract": 5036,
      "Ġinterventions": 5037,
      "Ġgluc": 5038,
      "Ġsimpl": 5039,
      "Ġexploring": 5040,
      "Ġowners": 5041,
      "Ġpursu": 5042,
      "Ġveter": 5043,
      "Ġfollows": 5044,
      "Ġpractical": 5045,
      "Ġ40": 5046,
      "Ġ2018": 5047,
      "Ġmember": 5048,
      "Ġpreventing": 5049,
      "ĠAlthough": 5050,
      "Ġnuts": 5051,
      "Ġsuppl": 5052,
      "iveness": 5053,
      "Ġimplemented": 5054,
      "ĠClimate": 5055,
      "Ġperiods": 5056,
      "Ġfiber": 5057,
      "Ġoperation": 5058,
      "Ġoperating": 5059,
      "Ġsensory": 5060,
      "ĠIranian": 5061,
      "fortunately": 5062,
      "Ġbirth": 5063,
      "Ġintegration": 5064,
      "Ġkinds": 5065,
      "Ġmoving": 5066,
      "Ġminimize": 5067,
      "Ġmechanisms": 5068,
      "Understanding": 5069,
      "Ġexperiments": 5070,
      "Ġmolecules": 5071,
      "Ġcelebrate": 5072,
      "Ġframework": 5073,
      "ĠPeople": 5074,
      "ĠCenter": 5075,
      "Ġpackage": 5076,
      "Ġforests": 5077,
      "Ġmutations": 5078,
      "Ġethical": 5079,
      "ĠFrance": 5080,
      "ĠCounty": 5081,
      "Ġpieces": 5082,
      "Ġintelligence": 5083,
      "Ġbasket": 5084,
      "Ġlandscape": 5085,
      "Ġatmosphere": 5086,
      "ĠRadio": 5087,
      "Ġdestroy": 5088,
      "ĠRomans": 5089,
      "Ġvibrant": 5090,
      "friendly": 5091,
      "Ġillegal": 5092,
      "Ġhusband": 5093,
      "Ġthorough": 5094,
      "Ġcircumstances": 5095,
      "Ġchromos": 5096,
      "90": 5097,
      "De": 5098,
      "IS": 5099,
      "LA": 5100,
      "bit": 5101,
      "bow": 5102,
      "bial": 5103,
      "fast": 5104,
      "ira": 5105,
      "ios": 5106,
      "na": 5107,
      "sis": 5108,
      "van": 5109,
      "yc": 5110,
      "Ġaer": 5111,
      "Ġaid": 5112,
      "rey": 5113,
      "Ġcook": 5114,
      "isis": 5115,
      "Ġple": 5116,
      "Ġpand": 5117,
      "Ġang": 5118,
      "Ġborn": 5119,
      "Ġmist": 5120,
      "Ġhour": 5121,
      "Ġep": 5122,
      "Ġeast": 5123,
      "iling": 5124,
      "omal": 5125,
      "omiting": 5126,
      "ete": 5127,
      "etics": 5128,
      "Ġlam": 5129,
      "Ġlabor": 5130,
      "Ġlubric": 5131,
      "Ġnarr": 5132,
      "Ġisol": 5133,
      "ĠTesting": 5134,
      "ull": 5135,
      "unn": 5136,
      "Ġstick": 5137,
      "Ġstyles": 5138,
      "amless": 5139,
      "atever": 5140,
      "Ġdeer": 5141,
      "Ġdeeper": 5142,
      "thod": 5143,
      "ĠPract": 5144,
      "Ġvill": 5145,
      "Ġvoc": 5146,
      "ĠMW": 5147,
      "ĠMal": 5148,
      "ĠBo": 5149,
      "ĠHel": 5150,
      "ĠHave": 5151,
      "ocking": 5152,
      "Ġplans": 5153,
      "ĠEff": 5154,
      "ĠEastern": 5155,
      "Ġship": 5156,
      "Ġspend": 5157,
      "Ġspiders": 5158,
      "Ġimplications": 5159,
      "Ġintens": 5160,
      "ĠNow": 5161,
      "Ġcompounds": 5162,
      "Ġarc": 5163,
      "fered": 5164,
      "Ġtele": 5165,
      "cester": 5166,
      "Ġouter": 5167,
      "Ġjack": 5168,
      "Ġindoor": 5169,
      "Ġindependent": 5170,
      "Ġtrib": 5171,
      "etwork": 5172,
      "ificial": 5173,
      "Ġroad": 5174,
      "obal": 5175,
      "Ġgrant": 5176,
      "Ġrace": 5177,
      "Ġwellbeing": 5178,
      "Ġassign": 5179,
      "Ġregulation": 5180,
      "ĠChurch": 5181,
      "Ġcoop": 5182,
      "Ġhighlight": 5183,
      "Ġdied": 5184,
      "Ġexperiencing": 5185,
      "Ġpolit": 5186,
      "ĠUnderstanding": 5187,
      "Ġbugs": 5188,
      "Ġ195": 5189,
      "Ġsupporting": 5190,
      "Ġjustice": 5191,
      "Ġvalves": 5192,
      "Ġinsights": 5193,
      "Ġformation": 5194,
      "Ġsolve": 5195,
      "inese": 5196,
      "Ġclearly": 5197,
      "Ġserved": 5198,
      "Ġmyster": 5199,
      "Ġdistribut": 5200,
      "Ġwrites": 5201,
      "Ġantioxid": 5202,
      "Ġfulf": 5203,
      "Ġconfirm": 5204,
      "Ġlargely": 5205,
      "Ġlegs": 5206,
      "ground": 5207,
      "exp": 5208,
      "Ġstronger": 5209,
      "Ġappears": 5210,
      "Ġsufficient": 5211,
      "Ġvideos": 5212,
      "Ġrecorded": 5213,
      "ospital": 5214,
      "Ġwinning": 5215,
      "Ġscreening": 5216,
      "ĠTechnology": 5217,
      "Ġpriorit": 5218,
      "Ġmoral": 5219,
      "Ġconsistent": 5220,
      "Ġextremely": 5221,
      "Ġjobs": 5222,
      "Ġinfectious": 5223,
      "ĠPersist": 5224,
      "Ġattribute": 5225,
      "ĠNigeria": 5226,
      "Ġdocument": 5227,
      "Ġvehicle": 5228,
      "Ġconversation": 5229,
      "Ġbaby": 5230,
      "Ġinstruments": 5231,
      "ĠAvoid": 5232,
      "Ġmoist": 5233,
      "Ġfascinating": 5234,
      "ĠNeeds": 5235,
      "Ġfreedom": 5236,
      "Ġratio": 5237,
      "Ġcontemporary": 5238,
      "specific": 5239,
      "Ġcommercial": 5240,
      "'re": 5241,
      "40": 5242,
      "99": 5243,
      "Af": 5244,
      "Com": 5245,
      "DP": 5246,
      "Dr": 5247,
      "SA": 5248,
      "bes": 5249,
      "cont": 5250,
      "givers": 5251,
      "men": 5252,
      "nect": 5253,
      "year": 5254,
      "zz": 5255,
      "Ã©": 5256,
      "Ġtension": 5257,
      "inter": 5258,
      "infl": 5259,
      "ret": 5260,
      "Ġsides": 5261,
      "Ġcou": 5262,
      "Ġcooking": 5263,
      "Ġwest": 5264,
      "Ġwitness": 5265,
      "alle": 5266,
      "Ġfet": 5267,
      "Ġfish": 5268,
      "oured": 5269,
      "Ġtold": 5270,
      "Ġdial": 5271,
      "Ġdorm": 5272,
      "rooms": 5273,
      "Ġthick": 5274,
      "omfort": 5275,
      "Ġliver": 5276,
      "Ġlinks": 5277,
      "Ġnodes": 5278,
      "lymp": 5279,
      "utrition": 5280,
      "olism": 5281,
      "otic": 5282,
      "raction": 5283,
      "ĠAlex": 5284,
      "Ġstomach": 5285,
      "ĠSm": 5286,
      "iforn": 5287,
      "ĠCH": 5288,
      "ĠCorn": 5289,
      "hern": 5290,
      "Ġexcept": 5291,
      "ĠPat": 5292,
      "ppings": 5293,
      "aint": 5294,
      "ĠMar": 5295,
      "ĠMarc": 5296,
      "osen": 5297,
      "ĠRico": 5298,
      "Ġund": 5299,
      "Ġspent": 5300,
      "Ġspending": 5301,
      "ĠFort": 5302,
      "Ġmappings": 5303,
      "Ġintake": 5304,
      "ĠGPS": 5305,
      "orms": 5306,
      "ĠOut": 5307,
      "Ġresil": 5308,
      "ĠThrough": 5309,
      "Ġcompat": 5310,
      "ĠUV": 5311,
      "Ġapprec": 5312,
      "ryption": 5313,
      "Ġmanner": 5314,
      "rently": 5315,
      "Ġjud": 5316,
      "rics": 5317,
      "Ġoverl": 5318,
      "ĠJu": 5319,
      "ĠJones": 5320,
      "Ġrecovery": 5321,
      "Ġrepair": 5322,
      "Ġdesired": 5323,
      "next": 5324,
      "ĠStr": 5325,
      "ube": 5326,
      "arehouse": 5327,
      "Ġraw": 5328,
      "ĠKing": 5329,
      "Ġphase": 5330,
      "ĠChinese": 5331,
      "Ġobst": 5332,
      "Ġtransaction": 5333,
      "Ġreduction": 5334,
      "Ġreduces": 5335,
      "Ġdiscomfort": 5336,
      "ĠEnergy": 5337,
      "Ġpaid": 5338,
      "Ġlocations": 5339,
      "Ġsolid": 5340,
      "Ġengaging": 5341,
      "Ġadvoc": 5342,
      "ĠReal": 5343,
      "Ġorganized": 5344,
      "Ġshel": 5345,
      "vernment": 5346,
      "Ġserves": 5347,
      "Ġpromise": 5348,
      "Ġissued": 5349,
      "Ġfeelings": 5350,
      "Ġcontrolled": 5351,
      "Ġassociation": 5352,
      "Ġdriving": 5353,
      "ĠGeneral": 5354,
      "Ġstrengthen": 5355,
      "Ġdomestic": 5356,
      "Ġbiological": 5357,
      "Ġmajority": 5358,
      "Ġconcerned": 5359,
      "Ġpopularity": 5360,
      "Ġsaying": 5361,
      "Ġauthority": 5362,
      "Ġrecognize": 5363,
      "Ġcontinued": 5364,
      "Ġbelieved": 5365,
      "Ġrecords": 5366,
      "Ġcustomer": 5367,
      "Ġcustomers": 5368,
      "Ġmobility": 5369,
      "force": 5370,
      "ĠSupport": 5371,
      "Ġcapture": 5372,
      "Ġsatisf": 5373,
      "Ġmechanism": 5374,
      "Ġcommittee": 5375,
      "Ġphotos": 5376,
      "Ġhouses": 5377,
      "Ġoceans": 5378,
      "Ġsamples": 5379,
      "board": 5380,
      "Ġshapes": 5381,
      "Ġperceived": 5382,
      "Ġpossibly": 5383,
      "Overall": 5384,
      "which": 5385,
      "Ġtitle": 5386,
      "Ġkitc": 5387,
      "Ġfaith": 5388,
      "ockatiels": 5389,
      "According": 5390,
      "commerce": 5391,
      "ifferent": 5392,
      "nextpage": 5393,
      "28": 5394,
      "App": 5395,
      "Cons": 5396,
      "Many": 5397,
      "ORE": 5398,
      "PP": 5399,
      "RO": 5400,
      "Sp": 5401,
      "bal": 5402,
      "body": 5403,
      "fers": 5404,
      "mas": 5405,
      "writ": 5406,
      "ximately": 5407,
      "Ġtick": 5408,
      "iny": 5409,
      "inent": 5410,
      "atin": 5411,
      "atics": 5412,
      "Ġsend": 5413,
      "Ġcraft": 5414,
      "essel": 5415,
      "Ġwife": 5416,
      "Ġinequ": 5417,
      "Ġoffered": 5418,
      "Ġdu": 5419,
      "arter": 5420,
      "arbon": 5421,
      "rol": 5422,
      "asion": 5423,
      "Ġhit": 5424,
      "Ġhar": 5425,
      "Ġreactions": 5426,
      "ilos": 5427,
      "oma": 5428,
      "âĢĺ": 5429,
      "Ġloved": 5430,
      "Ġnerv": 5431,
      "Ġgir": 5432,
      "igue": 5433,
      "igenous": 5434,
      "ĠServ": 5435,
      "Ġconv": 5436,
      "Ġorg": 5437,
      "ĠCam": 5438,
      "ĠCity": 5439,
      "aine": 5440,
      "Ġsuitable": 5441,
      "Ġchapter": 5442,
      "ĠMac": 5443,
      "ĠBook": 5444,
      "orthern": 5445,
      "ander": 5446,
      "emia": 5447,
      "ĠHello": 5448,
      "Ġrul": 5449,
      "Ġrandom": 5450,
      "ĠRoyal": 5451,
      "ĠDist": 5452,
      "ĠDef": 5453,
      "ĠDesign": 5454,
      "Ġshared": 5455,
      "Ġintr": 5456,
      "Ġintended": 5457,
      "ournal": 5458,
      "ĠNile": 5459,
      "ĠOlymp": 5460,
      "Ġkn": 5461,
      "Ġgenotyp": 5462,
      "uality": 5463,
      "aching": 5464,
      "ĠItem": 5465,
      "Ġtrial": 5466,
      "enses": 5467,
      "ensions": 5468,
      "Ġaccum": 5469,
      "Ġpret": 5470,
      "Ġreproductive": 5471,
      "ysical": 5472,
      "ober": 5473,
      "Ġblocks": 5474,
      "ĠYes": 5475,
      "ĠYet": 5476,
      "Ġgrand": 5477,
      "oving": 5478,
      "Ġamino": 5479,
      "Ġtransition": 5480,
      "Ġdetection": 5481,
      "Ġinterpre": 5482,
      "Ġtypical": 5483,
      "Ġglass": 5484,
      "Ġinsulin": 5485,
      "Ġengage": 5486,
      "ĠWeb": 5487,
      "Ġelectro": 5488,
      "Ġelectron": 5489,
      "Ġperformed": 5490,
      "Ġdistance": 5491,
      "Ġidentified": 5492,
      "Ġfamous": 5493,
      "Ġfamiliar": 5494,
      "Ġdemocratic": 5495,
      "Ġphysi": 5496,
      "paper": 5497,
      "Ġfocuses": 5498,
      "Ġpresented": 5499,
      "Ġflower": 5500,
      "Ġtopics": 5501,
      "Ġdetermined": 5502,
      "century": 5503,
      "Ġtruly": 5504,
      "ĠColl": 5505,
      "Ġpersonalized": 5506,
      "posable": 5507,
      "Ġdigest": 5508,
      "Ġavoiding": 5509,
      "Ġpictures": 5510,
      "ĠCoefficient": 5511,
      "Ġholds": 5512,
      "Ġemerging": 5513,
      "Ġemergency": 5514,
      "Ġobserved": 5515,
      "Ġmoved": 5516,
      "Additionally": 5517,
      "Ġexercises": 5518,
      "ymes": 5519,
      "Ġbarri": 5520,
      "Ġassessment": 5521,
      "ĠInstead": 5522,
      "Ġexperiment": 5523,
      "Ġdrawing": 5524,
      "Ġprocedures": 5525,
      "Ġslicing": 5526,
      "ĠCaliforn": 5527,
      "Ġliterature": 5528,
      "ĠNigerian": 5529,
      "Ġsquare": 5530,
      "Ġdoub": 5531,
      "Ġachieved": 5532,
      "ĠGMOs": 5533,
      "Ġdegrees": 5534,
      "Ġchlorine": 5535,
      "Ġestimated": 5536,
      "Ġaffordable": 5537,
      "á¸¥": 5538,
      "):": 5539,
      "Bl": 5540,
      "HE": 5541,
      "SR": 5542,
      "bury": 5543,
      "oe": 5544,
      "uction": 5545,
      "wich": 5546,
      "Ġâ": 5547,
      "Ġtip": 5548,
      "Ġtattoo": 5549,
      "inant": 5550,
      "hest": 5551,
      "Ġsen": 5552,
      "Ġcore": 5553,
      "Ġcopy": 5554,
      "itution": 5555,
      "orph": 5556,
      "Ġmer": 5557,
      "Ġdental": 5558,
      "lets": 5559,
      "rote": 5560,
      "asp": 5561,
      "iled": 5562,
      "ether": 5563,
      "Ġlag": 5564,
      "Ġliqu": 5565,
      "Ġnet": 5566,
      "urance": 5567,
      "chol": 5568,
      "Ġyouth": 5569,
      "eline": 5570,
      "ample": 5571,
      "Ġherit": 5572,
      "abb": 5573,
      "ective": 5574,
      "ĠPC": 5575,
      "ĠPP": 5576,
      "Ġvessel": 5577,
      "Ġweap": 5578,
      "ĠMORE": 5579,
      "Ġseven": 5580,
      "ĠEl": 5581,
      "ĠEv": 5582,
      "ĠEconom": 5583,
      "ĠEmp": 5584,
      "ĠEye": 5585,
      "ĠEthereum": 5586,
      "ĠDec": 5587,
      "Ġunits": 5588,
      "acts": 5589,
      "ĠGO": 5590,
      "ĠLaw": 5591,
      "ecess": 5592,
      "Ġclim": 5593,
      "Ġcompar": 5594,
      "Ġmanaged": 5595,
      "Ġmere": 5596,
      "Ġmeat": 5597,
      "formance": 5598,
      "irect": 5599,
      "Ġjoy": 5600,
      "Ġparties": 5601,
      "Ġtrain": 5602,
      "Ġtrait": 5603,
      "Ġtracks": 5604,
      "lowing": 5605,
      "Ġprev": 5606,
      "Ġunderst": 5607,
      "Ġdevelopers": 5608,
      "neys": 5609,
      "ype": 5610,
      "Ġrays": 5611,
      "Ġraise": 5612,
      "Ġmostly": 5613,
      "hentic": 5614,
      "Ġregarding": 5615,
      "Ġexperts": 5616,
      "Ġkept": 5617,
      "Ġ36": 5618,
      "Ġ198": 5619,
      "Ġflav": 5620,
      "ancer": 5621,
      "Ġtreaty": 5622,
      "Ġdepth": 5623,
      "Ġengaged": 5624,
      "Ġsocieties": 5625,
      "Ġplayer": 5626,
      "ĠRevolution": 5627,
      "Ġparticles": 5628,
      "Ġcultures": 5629,
      "Ġvectors": 5630,
      "Ġproductivity": 5631,
      "ĠManagement": 5632,
      "Ġfeels": 5633,
      "Ġglobally": 5634,
      "Ġlearned": 5635,
      "Ġstatement": 5636,
      "Ġsuccul": 5637,
      "Ġdetermining": 5638,
      "Ġcorrespond": 5639,
      "Ġhappy": 5640,
      "eech": 5641,
      "Ġlisten": 5642,
      "Ġresponsibility": 5643,
      "ĠSpec": 5644,
      "idden": 5645,
      "Ġcharacterized": 5646,
      "Ġmillions": 5647,
      "ammatory": 5648,
      "Ġbiggest": 5649,
      "Ġintroduce": 5650,
      "ĠCommun": 5651,
      "Ġdiagnosed": 5652,
      "Ġcrisis": 5653,
      "ĠIsland": 5654,
      "Ġerror": 5655,
      "Ġannotation": 5656,
      "Ġmeeting": 5657,
      "Ġclosely": 5658,
      "Ġsulfate": 5659,
      "ibrary": 5660,
      "ĠWhite": 5661,
      "Ġadvancements": 5662,
      "Ġexcell": 5663,
      "Ġexception": 5664,
      "Ġwalking": 5665,
      "ĠMinister": 5666,
      "Ġevaluation": 5667,
      "Ġinfections": 5668,
      "ĠGeorge": 5669,
      "Ġsequence": 5670,
      "Ġsample": 5671,
      "Ġappeared": 5672,
      "Ġultimately": 5673,
      "Ġdocuments": 5674,
      "Ġcomplicated": 5675,
      "Ġfarmers": 5676,
      "Ġcomfortable": 5677,
      "Ġmentioned": 5678,
      "Ġturning": 5679,
      "Ġthermal": 5680,
      "ĠProtection": 5681,
      "Ġimmediately": 5682,
      "()": 5683,
      "21": 5684,
      "?âĢĿ": 5685,
      "Cl": 5686,
      "Su": 5687,
      "See": 5688,
      "Your": 5689,
      "au": 5690,
      "bru": 5691,
      "dr": 5692,
      "gent": 5693,
      "hran": 5694,
      "pan": 5695,
      "rich": 5696,
      "tes": 5697,
      "uit": 5698,
      "vity": 5699,
      "with": 5700,
      "worth": 5701,
      "Ġtack": 5702,
      "Ġtang": 5703,
      "inn": 5704,
      "inations": 5705,
      "reate": 5706,
      "Ġolive": 5707,
      "Ġsin": 5708,
      "Ġsem": 5709,
      "Ġcra": 5710,
      "itors": 5711,
      "ishes": 5712,
      "oup": 5713,
      "Ġmac": 5714,
      "Ġtoys": 5715,
      "Ġtoler": 5716,
      "Ġdur": 5717,
      "Ġdance": 5718,
      "arus": 5719,
      "arity": 5720,
      "asia": 5721,
      "Ġretain": 5722,
      "Ġrenew": 5723,
      "Ġlung": 5724,
      "iden": 5725,
      "idth": 5726,
      "uts": 5727,
      "Ġbell": 5728,
      "Ġforces": 5729,
      "char": 5730,
      "ĠAL": 5731,
      "ĠAlp": 5732,
      "Ġstone": 5733,
      "Ġstaff": 5734,
      "irus": 5735,
      "ĠIDis": 5736,
      "ĠSens": 5737,
      "amine": 5738,
      "ĠCour": 5739,
      "ĠPan": 5740,
      "ĠPublic": 5741,
      "key": 5742,
      "Ġvomiting": 5743,
      "ĠMicro": 5744,
      "ĠMuseum": 5745,
      "ĠBoth": 5746,
      "ĠWhy": 5747,
      "Ġhair": 5748,
      "ĠHome": 5749,
      "ĠHall": 5750,
      "ĠHouse": 5751,
      "acking": 5752,
      "ibl": 5753,
      "Ġseamless": 5754,
      "ĠRel": 5755,
      "ĠRem": 5756,
      "Ġshall": 5757,
      "Ġunless": 5758,
      "Ġworship": 5759,
      "ague": 5760,
      "Ġgenres": 5761,
      "rie": 5762,
      "Ġthemes": 5763,
      "Ġindeed": 5764,
      "Ġtrade": 5765,
      "luding": 5766,
      "terest": 5767,
      "Ġroof": 5768,
      "Ġblog": 5769,
      "phone": 5770,
      "ĠVen": 5771,
      "Ġassume": 5772,
      "Ġregional": 5773,
      "Ġpoetry": 5774,
      "ĠKnow": 5775,
      "Ġtransactions": 5776,
      "Ġdecor": 5777,
      "Ġdecided": 5778,
      "Ġcoff": 5779,
      "Ġrequest": 5780,
      "Ġpreserving": 5781,
      "Ġprocessed": 5782,
      "Ġinterface": 5783,
      "Ġdiscipl": 5784,
      "Ġ197": 5785,
      "Ġclassroom": 5786,
      "Ġgrown": 5787,
      "Ġsupported": 5788,
      "Ġinsert": 5789,
      "Ġeveryday": 5790,
      "Ġprovider": 5791,
      "ĠAsia": 5792,
      "Ġskill": 5793,
      "Ġauthentic": 5794,
      "Ġplanets": 5795,
      "Ġtemple": 5796,
      "Ġresulting": 5797,
      "Ġdownload": 5798,
      "Ġshowing": 5799,
      "Ġ2016": 5800,
      "gery": 5801,
      "Ġmusicians": 5802,
      "Ġequally": 5803,
      "Ġcontributing": 5804,
      "Ġfocused": 5805,
      "Ġbrings": 5806,
      "Ġconsumers": 5807,
      "ĠOnly": 5808,
      "Ġoxide": 5809,
      "icians": 5810,
      "Ġopening": 5811,
      "ĠTehran": 5812,
      "Ġturns": 5813,
      "ĠSpace": 5814,
      "Ġidentifying": 5815,
      "Ġsunlight": 5816,
      "Ġpathway": 5817,
      "Ġorigin": 5818,
      "Ġstreet": 5819,
      "Ġdiscussion": 5820,
      "holders": 5821,
      "Ġprimarily": 5822,
      "illeda": 5823,
      "Ġwindow": 5824,
      "Ġbullet": 5825,
      "grading": 5826,
      "ilson": 5827,
      "Ġdescribe": 5828,
      "Ġbeginning": 5829,
      "Ġjournal": 5830,
      "Ġcommitment": 5831,
      "ĠInstitute": 5832,
      "Ġprecise": 5833,
      "Ġleadership": 5834,
      "Ġwalk": 5835,
      "Ġexplained": 5836,
      "Ġarchae": 5837,
      "www": 5838,
      "Ġillustrations": 5839,
      "Ġvehicles": 5840,
      "Ġsusp": 5841,
      "ĠJapanese": 5842,
      "Ġsavings": 5843,
      "Ġdangerous": 5844,
      "Ġbehaviors": 5845,
      "Ġscheme": 5846,
      "Ġsustainability": 5847,
      "ĠMAX": 5848,
      "ĠREAD": 5849,
      "ĠPrinciples": 5850,
      "Ġprices": 5851,
      "Ġtouch": 5852,
      "ĠOctober": 5853,
      "ĠCongress": 5854,
      "Ġneighb": 5855,
      "Ġstraight": 5856,
      "inflammatory": 5857,
      "Ġorgans": 5858,
      "Ġheritage": 5859,
      "bruary": 5860,
      "Are": 5861,
      "During": 5862,
      "EAL": 5863,
      "IV": 5864,
      "OT": 5865,
      "Or": 5866,
      "Sol": 5867,
      "bing": 5868,
      "bag": 5869,
      "ca": 5870,
      "cest": 5871,
      "corb": 5872,
      "gien": 5873,
      "lim": 5874,
      "met": 5875,
      "nic": 5876,
      "right": 5877,
      "she": 5878,
      "width": 5879,
      "Ġion": 5880,
      "Ġax": 5881,
      "inarian": 5882,
      "health": 5883,
      "rete": 5884,
      "onal": 5885,
      "atto": 5886,
      "Ġsod": 5887,
      "Ġcop": 5888,
      "Ġcup": 5889,
      "isk": 5890,
      "Ġwet": 5891,
      "Ġwrote": 5892,
      "Ġfif": 5893,
      "Ġfoss": 5894,
      "Ġbud": 5895,
      "Ġborder": 5896,
      "icip": 5897,
      "Ġdoll": 5898,
      "Ġhip": 5899,
      "Ġreven": 5900,
      "Ġlun": 5901,
      "Ġnit": 5902,
      "unt": 5903,
      "Ġstem": 5904,
      "Ġstri": 5905,
      "ĠIrish": 5906,
      "ĠSometimes": 5907,
      "ifies": 5908,
      "Ġheard": 5909,
      "ĠCultural": 5910,
      "ĠClick": 5911,
      "ady": 5912,
      "abul": 5913,
      "Ġwhom": 5914,
      "Ġvent": 5915,
      "Ġchances": 5916,
      "que": 5917,
      "Ġwear": 5918,
      "ĠMet": 5919,
      "Ġenable": 5920,
      "ĠWants": 5921,
      "ocity": 5922,
      "ocracy": 5923,
      "Ġround": 5924,
      "Ġplot": 5925,
      "ĠEarly": 5926,
      "ĠRen": 5927,
      "Ġunlike": 5928,
      "Ġunknown": 5929,
      "Ġsperm": 5930,
      "perature": 5931,
      "ĠFederal": 5932,
      "izontal": 5933,
      "Ġworry": 5934,
      "Ġdisrupt": 5935,
      "ultaneously": 5936,
      "ĠInformation": 5937,
      "ostic": 5938,
      "Ġclick": 5939,
      "Ġclosed": 5940,
      "Ġcloud": 5941,
      "reating": 5942,
      "Ġcomposition": 5943,
      "Ġ26": 5944,
      "ĠUN": 5945,
      "ĠUl": 5946,
      "Ġoutl": 5947,
      "Ġtrou": 5948,
      "anges": 5949,
      "lling": 5950,
      "Ġanyone": 5951,
      "Ġproven": 5952,
      "Ġsaw": 5953,
      "Ġdesp": 5954,
      "ĠStep": 5955,
      "ondr": 5956,
      "Ġoffic": 5957,
      "Ind": 5958,
      "ĠVal": 5959,
      "Ġregul": 5960,
      "Ġcoal": 5961,
      "Ġpreservation": 5962,
      "Ġsurvey": 5963,
      "Ġmuscles": 5964,
      "Ġsets": 5965,
      "Ġsimultaneously": 5966,
      "Ġinsulation": 5967,
      "Ġexplan": 5968,
      "Ġextensive": 5969,
      "Ġdesigns": 5970,
      "Ġdefine": 5971,
      "Ġprotected": 5972,
      "Ġprogression": 5973,
      "Ġfinance": 5974,
      "Ġdistingu": 5975,
      "Ġshowc": 5976,
      "Ġ2010": 5977,
      "Ġapproximately": 5978,
      "Ġ--": 5979,
      "Ġfunctionality": 5980,
      "Ġlessons": 5981,
      "Ġgradu": 5982,
      "Ġbreast": 5983,
      "ĠAlliance": 5984,
      "aley": 5985,
      "Ġcontributes": 5986,
      "Ġideal": 5987,
      "Ġthoughts": 5988,
      "Ġhybrid": 5989,
      "Ġavailability": 5990,
      "Ġrestrict": 5991,
      "Ġmovements": 5992,
      "cover": 5993,
      "Ġstanding": 5994,
      "ĠScient": 5995,
      "Ġoperations": 5996,
      "Ġ80": 5997,
      "Ġlisted": 5998,
      "Ġdrag": 5999,
      "Ġlaid": 6000,
      "ĠWorcester": 6001,
      "Ġcamera": 6002,
      "Ġmarriage": 6003,
      "Ġexistence": 6004,
      "Ġresistant": 6005,
      "Ġgained": 6006,
      "Ġindicates": 6007,
      "Ġpurchase": 6008,
      "Ġzones": 6009,
      "ĠPrevention": 6010,
      "Ġcalculate": 6011,
      "Ġthreats": 6012,
      "Ġvertical": 6013,
      "Adv": 6014,
      "Ġlogical": 6015,
      "Ġnearby": 6016,
      "Ġinnovation": 6017,
      "ĠPowerpoint": 6018,
      "ĠTechnique": 6019,
      "ĠQuakers": 6020,
      "Ġchannels": 6021,
      "Ġvoices": 6022,
      "Ġfuels": 6023,
      "Ġadoption": 6024,
      "Ġnutritional": 6025,
      "Ġplatforms": 6026,
      "Ġscenar": 6027,
      "Ġpanels": 6028,
      "Ġdouble": 6029,
      "ĠMcC": 6030,
      "ochondr": 6031,
      "ĠEnvironmental": 6032,
      "azzaley": 6033,
      "ĠBelarus": 6034,
      "Ġperspectives": 6035,
      "uilding": 6036,
      "Ġagreement": 6037,
      "Ġabsorbed": 6038,
      "Ġencouraged": 6039,
      "Ġholidays": 6040,
      "Ġdisclosure": 6041,
      "Ġthousands": 6042,
      "Ġmunicipalities": 6043,
      "ĠCouncil": 6044,
      "world": 6045,
      "Ġcloser": 6046,
      "quarium": 6047,
      "Ġdiameter": 6048,
      "Ġveterinarian": 6049,
      "ĠIDisposable": 6050,
      "attoos": 6051,
      "Ġfossil": 6052,
      "48": 6053,
      "HC": 6054,
      "IR": 6055,
      "Im": 6056,
      "LS": 6057,
      "Now": 6058,
      "Read": 6059,
      "TS": 6060,
      "box": 6061,
      "des": 6062,
      "hol": 6063,
      "iren": 6064,
      "iagn": 6065,
      "log": 6066,
      "mia": 6067,
      "making": 6068,
      "nected": 6069,
      "oly": 6070,
      "rus": 6071,
      "rate": 6072,
      "rical": 6073,
      "rors": 6074,
      "such": 6075,
      "win": 6076,
      "Ġ+": 6077,
      "Ġesc": 6078,
      "ĠðŁ": 6079,
      "reated": 6080,
      "eries": 6081,
      "erative": 6082,
      "Ġoak": 6083,
      "Ġsac": 6084,
      "Ġsizes": 6085,
      "Ġschol": 6086,
      "enger": 6087,
      "Ġpil": 6088,
      "Ġpant": 6089,
      "Ġpages": 6090,
      "Ġbiod": 6091,
      "Ġmice": 6092,
      "icon": 6093,
      "Ġdri": 6094,
      "Ġreplace": 6095,
      "omas": 6096,
      "âĢ¢": 6097,
      "Ġgather": 6098,
      "imer": 6099,
      "olk": 6100,
      "ĠToday": 6101,
      "urg": 6102,
      "ĠAHR": 6103,
      "ĠAstronomy": 6104,
      "irt": 6105,
      "ĠSign": 6106,
      "Ġasking": 6107,
      "ĠCov": 6108,
      "ateur": 6109,
      "Ġdefe": 6110,
      "Ġwhatever": 6111,
      "ĠProm": 6112,
      "ĠPost": 6113,
      "ĠPress": 6114,
      "ĠPolic": 6115,
      "Ġcompl": 6116,
      "Ġchain": 6117,
      "ĠMark": 6118,
      "ĠBas": 6119,
      "ĠBay": 6120,
      "Ġencomp": 6121,
      "Ġhack": 6122,
      "Ġseg": 6123,
      "Ġleak": 6124,
      "udolf": 6125,
      "Ġspect": 6126,
      "Ġsport": 6127,
      "ĠFat": 6128,
      "ĠFinally": 6129,
      "Ġmapped": 6130,
      "ogen": 6131,
      "Ġintent": 6132,
      "Ġdisput": 6133,
      "Ġadverse": 6134,
      "plant": 6135,
      "Ġincred": 6136,
      "ĠGazzaley": 6137,
      "ĠOF": 6138,
      "ĠOpen": 6139,
      "Ġresol": 6140,
      "ĠLou": 6141,
      "ĠLord": 6142,
      "Ġclothing": 6143,
      "Ġkill": 6144,
      "Ġkne": 6145,
      "ruption": 6146,
      "Ġ22": 6147,
      "ressed": 6148,
      "ritis": 6149,
      "Ġmaybe": 6150,
      "ologists": 6151,
      "Ġprepare": 6152,
      "Ġconsists": 6153,
      "Ġanywhere": 6154,
      "tered": 6155,
      "ĠJew": 6156,
      "Ġproducing": 6157,
      "Ġdesire": 6158,
      "Ġmode": 6159,
      "Ġrelies": 6160,
      "Ġgrunge": 6161,
      "aker": 6162,
      "ĠVer": 6163,
      "ĠVilleda": 6164,
      "Ġphilos": 6165,
      "ĠChange": 6166,
      "Ġacad": 6167,
      "Ġacknow": 6168,
      "Ġcopper": 6169,
      "Ġcarc": 6170,
      "Ġremind": 6171,
      "Ġremoved": 6172,
      "Ġnoise": 6173,
      "Ġinstall": 6174,
      "Ġsurge": 6175,
      "ĠEnc": 6176,
      "Ġfolk": 6177,
      "ĠReb": 6178,
      "Ġgreatest": 6179,
      "ĠIndividuals": 6180,
      "Ġ2013": 6181,
      "Ġfindings": 6182,
      "Ġinterests": 6183,
      "ossible": 6184,
      "Ġfunctional": 6185,
      "Ġgrade": 6186,
      "Ġcertainly": 6187,
      "Ġprofound": 6188,
      "Ġoccup": 6189,
      "Ġfocusing": 6190,
      "Ġlegacy": 6191,
      "Ġ180": 6192,
      "Ġyounger": 6193,
      "Ġdelay": 6194,
      "Ġmedication": 6195,
      "Ġputting": 6196,
      "Ġoperate": 6197,
      "Ġlayers": 6198,
      "Ġparam": 6199,
      "Ġbegins": 6200,
      "Ġportion": 6201,
      "Ġreturns": 6202,
      "arthy": 6203,
      "ĠActiv": 6204,
      "Ġtargeted": 6205,
      "Ġminimum": 6206,
      "Ġanalyze": 6207,
      "Ġexpressed": 6208,
      "Ġremained": 6209,
      "Ġsexual": 6210,
      "ophistic": 6211,
      "Ġbringing": 6212,
      "Ġmolecule": 6213,
      "ĠWho": 6214,
      "Ġexciting": 6215,
      "Ġdeclared": 6216,
      "157": 6217,
      "Ġattributes": 6218,
      "Health": 6219,
      "Ġcomplications": 6220,
      "Ġarmy": 6221,
      "Ġvacc": 6222,
      "Ġpossibilities": 6223,
      "ĠStudents": 6224,
      "ĠHistor": 6225,
      "ĠGlobal": 6226,
      "Ġpasswords": 6227,
      "Using": 6228,
      "Ġflexibility": 6229,
      "ĠSolar": 6230,
      "Ġmoxa": 6231,
      "Ġinjury": 6232,
      "Ġnuclear": 6233,
      "Ġceremon": 6234,
      "Ġphosphine": 6235,
      "ĠKhan": 6236,
      "Ġmindfulness": 6237,
      "ĠProfessor": 6238,
      "Ġaccomplish": 6239,
      "Ġexchange": 6240,
      "Ġdestroyed": 6241,
      "Ġcooperation": 6242,
      "allel": 6243,
      "Ġinterpret": 6244,
      "ĠCalifornia": 6245,
      "ĠAlpha": 6246,
      "corbic": 6247,
      "Ġdespite": 6248,
      "\".": 6249,
      "11": 6250,
      "CP": 6251,
      "Cal": 6252,
      "IP": 6253,
      "ION": 6254,
      "Wor": 6255,
      "dy": 6256,
      "drome": 6257,
      "ek": 6258,
      "hop": 6259,
      "iability": 6260,
      "rint": 6261,
      "while": 6262,
      "zen": 6263,
      "Ê¿": 6264,
      "Ġ<": 6265,
      "ĠÂ": 6266,
      "Ġtro": 6267,
      "Ġtut": 6268,
      "rep": 6269,
      "athe": 6270,
      "Ġsell": 6271,
      "Ġcast": 6272,
      "Ġcrow": 6273,
      "Ġcovered": 6274,
      "itor": 6275,
      "Ġwave": 6276,
      "Ġped": 6277,
      "organ": 6278,
      "Ġfurn": 6279,
      "Ġbric": 6280,
      "Ġdie": 6281,
      "Ġdram": 6282,
      "level": 6283,
      "roit": 6284,
      "asy": 6285,
      "Ġhole": 6286,
      "Ġrely": 6287,
      "Ġreform": 6288,
      "iler": 6289,
      "Ġgraphene": 6290,
      "idential": 6291,
      "imicro": 6292,
      "ĠTO": 6293,
      "Ġforced": 6294,
      "oto": 6295,
      "ĠAT": 6296,
      "unte": 6297,
      "Ġstores": 6298,
      "ĠSCH": 6299,
      "ĠSession": 6300,
      "mentation": 6301,
      "ĠClean": 6302,
      "Ġdegrad": 6303,
      "through": 6304,
      "istle": 6305,
      "keep": 6306,
      "Ġvs": 6307,
      "Ġchosen": 6308,
      "ĠBu": 6309,
      "ĠBPC": 6310,
      "ounter": 6311,
      "osite": 6312,
      "Ġenables": 6313,
      "ĠWed": 6314,
      "ĠWilson": 6315,
      "ibly": 6316,
      "ptember": 6317,
      "ĠRAN": 6318,
      "Ġuns": 6319,
      "ĠFest": 6320,
      "Ġintric": 6321,
      "thern": 6322,
      "plasia": 6323,
      "Ġinches": 6324,
      "ĠGold": 6325,
      "ĠInit": 6326,
      "agraph": 6327,
      "ĠNon": 6328,
      "ĠNor": 6329,
      "ĠOx": 6330,
      "ĠOil": 6331,
      "ĠOpt": 6332,
      "ardi": 6333,
      "Ġcomprom": 6334,
      "Ġgender": 6335,
      "endel": 6336,
      "Ġappoint": 6337,
      "Ġotherwise": 6338,
      "Ġconsent": 6339,
      "teen": 6340,
      "ĠJune": 6341,
      "ĠJournal": 6342,
      "Ġrocks": 6343,
      "Ġrecyc": 6344,
      "Ġacts": 6345,
      "ails": 6346,
      "Ġmodification": 6347,
      "Ġmodule": 6348,
      "Ġrelative": 6349,
      "Ġ2030": 6350,
      "Ġgrass": 6351,
      "ĠVol": 6352,
      "Ġpoison": 6353,
      "Ġvariable": 6354,
      "ĠAny": 6355,
      "Ġdecline": 6356,
      "Ġcarries": 6357,
      "Ġinteraction": 6358,
      "Ġinteractions": 6359,
      "Ġdiscrim": 6360,
      "Ġ190": 6361,
      "Ġsurgery": 6362,
      "Ġseeing": 6363,
      "Ġseeking": 6364,
      "Ġexploration": 6365,
      "Ġextract": 6366,
      "Ġengagement": 6367,
      "Ġmini": 6368,
      "Ġelectronic": 6369,
      "Ġpractition": 6370,
      "Ġtempl": 6371,
      "ategories": 6372,
      "iversal": 6373,
      "Ġstarts": 6374,
      "Ġcaregivers": 6375,
      "ĠProv": 6376,
      "Ġprevention": 6377,
      "Ġlesson": 6378,
      "Ġengineers": 6379,
      "Ġprofile": 6380,
      "Ġprofessor": 6381,
      "Ġestate": 6382,
      "Ġfewer": 6383,
      "Ġconfidence": 6384,
      "Ġimplementing": 6385,
      "Ġconsumer": 6386,
      "Ġhygien": 6387,
      "Ġrestore": 6388,
      "Ġdamaged": 6389,
      "Ġinfluences": 6390,
      "Ġinitially": 6391,
      "Ġboard": 6392,
      "Ġbroken": 6393,
      "Ġbiology": 6394,
      "Ġcomplexity": 6395,
      "Ġsymptom": 6396,
      "loads": 6397,
      "Ġletter": 6398,
      "Ġletters": 6399,
      "Ġfacing": 6400,
      "Ġmeasured": 6401,
      "Ġmeasurements": 6402,
      "Ġtexture": 6403,
      "ĠExper": 6404,
      "Ġbird": 6405,
      "Ġaudiences": 6406,
      "Ġmassive": 6407,
      "Ġintegral": 6408,
      "Ġrecognition": 6409,
      "ĠChristmas": 6410,
      "Ġsurvive": 6411,
      "Ġsections": 6412,
      "Ġparticipation": 6413,
      "Ġparticipate": 6414,
      "Ġinnovations": 6415,
      "Ġselected": 6416,
      "Ġgambling": 6417,
      "ĠAccess": 6418,
      "Ġmachines": 6419,
      "Ġbeauty": 6420,
      "ĠLevel": 6421,
      "Ġstatus": 6422,
      "Ġwarming": 6423,
      "Ġexpectations": 6424,
      "ĠAustralian": 6425,
      "ING": 6426,
      "Ġalleles": 6427,
      "Ġconstantly": 6428,
      "Ġeggs": 6429,
      "Ġbehaviour": 6430,
      "Ġprospect": 6431,
      "Ġadministration": 6432,
      "Ġperspective": 6433,
      "ersonalization": 6434,
      "ĠHistory": 6435,
      "Ġconcentration": 6436,
      "Ġhunger": 6437,
      "Ġfortress": 6438,
      "Ġvariations": 6439,
      "Ġprotocols": 6440,
      "Ġbowl": 6441,
      "Ġprohibition": 6442,
      "Ġfragments": 6443,
      "Ġcandidate": 6444,
      "Ġinclusive": 6445,
      "Ġtelescope": 6446,
      "Ġglucose": 6447,
      "Ġpandemic": 6448,
      "thodont": 6449,
      "Ġdoubt": 6450,
      "ecessary": 6451,
      "Ġcarcin": 6452,
      "Ġdegradation": 6453,
      "35": 6454,
      "AM": 6455,
      "Americ": 6456,
      "CU": 6457,
      "Con": 6458,
      "GMO": 6459,
      "Lock": 6460,
      "Next": 6461,
      "Res": 6462,
      "Soviet": 6463,
      "That": 6464,
      "eath": 6465,
      "iop": 6466,
      "iated": 6467,
      "los": 6468,
      "med": 6469,
      "mic": 6470,
      "oke": 6471,
      "try": 6472,
      "yes": 6473,
      "âĸ": 6474,
      "Ġvel": 6475,
      "Ġice": 6476,
      "inates": 6477,
      "onent": 6478,
      "atch": 6479,
      "Ġsick": 6480,
      "Ġsophistic": 6481,
      "Ġcategory": 6482,
      "ita": 6483,
      "isations": 6484,
      "isco": 6485,
      "Ġwish": 6486,
      "Ġwaves": 6487,
      "Ġpup": 6488,
      "orous": 6489,
      "orption": 6490,
      "alk": 6491,
      "Ġfra": 6492,
      "Ġfilled": 6493,
      "Ġboy": 6494,
      "outhern": 6495,
      "Ġinner": 6496,
      "Ġmood": 6497,
      "Ġdin": 6498,
      "Ġdust": 6499,
      "Ġdream": 6500,
      "Ġdaisy": 6501,
      "arn": 6502,
      "rotic": 6503,
      "Ġthin": 6504,
      "Ġthread": 6505,
      "ilution": 6506,
      "Ġgap": 6507,
      "imming": 6508,
      "ĠTry": 6509,
      "ĠTHE": 6510,
      "ulates": 6511,
      "Ġonto": 6512,
      "sec": 6513,
      "section": 6514,
      "Ġproactive": 6515,
      "unk": 6516,
      "Ġstated": 6517,
      "Ġstake": 6518,
      "ĠIdent": 6519,
      "ĠSir": 6520,
      "ĠSystem": 6521,
      "ĠSym": 6522,
      "ament": 6523,
      "amps": 6524,
      "amples": 6525,
      "ĠCy": 6526,
      "ĠCat": 6527,
      "ĠCor": 6528,
      "Ġalter": 6529,
      "Ġalph": 6530,
      "Ġalert": 6531,
      "opher": 6532,
      "ophy": 6533,
      "Ġsuc": 6534,
      "Ġcharge": 6535,
      "quake": 6536,
      "ĠMental": 6537,
      "ĠBre": 6538,
      "ĠBat": 6539,
      "ĠBro": 6540,
      "ounder": 6541,
      "Ġenem": 6542,
      "ĠWind": 6543,
      "Ġneon": 6544,
      "acre": 6545,
      "iber": 6546,
      "ĠEvery": 6547,
      "ĠResp": 6548,
      "ĠRNA": 6549,
      "ĠDig": 6550,
      "ĠDel": 6551,
      "Ġshoot": 6552,
      "Ġunable": 6553,
      "Ġspell": 6554,
      "Ġspeech": 6555,
      "ĠFree": 6556,
      "ogle": 6557,
      "Ġnoted": 6558,
      "Ġimpressive": 6559,
      "Ġimpossible": 6560,
      "ghan": 6561,
      "agon": 6562,
      "ĠNear": 6563,
      "ĠNetwork": 6564,
      "ardens": 6565,
      "ĠLim": 6566,
      "ĠLike": 6567,
      "ĠLife": 6568,
      "econom": 6569,
      "ĠThose": 6570,
      "Ġkilled": 6571,
      "ĠUk": 6572,
      "Ġjazz": 6573,
      "Ġparty": 6574,
      "Ġtrained": 6575,
      "Ġwhenever": 6576,
      "Ġproved": 6577,
      "Ġrepet": 6578,
      "Ġsafer": 6579,
      "erved": 6580,
      "Ġages": 6581,
      "Ġdescript": 6582,
      "Ġregulate": 6583,
      "Ġvarieties": 6584,
      "Ġtransl": 6585,
      "Ġexpensive": 6586,
      "Ġimportantly": 6587,
      "Ġartificial": 6588,
      "ĠUnfortunately": 6589,
      "Ġinstant": 6590,
      "Ġentertain": 6591,
      "ventional": 6592,
      "Ġleader": 6593,
      "Ġtreating": 6594,
      "Ġmainly": 6595,
      "Ġearn": 6596,
      "Ġsky": 6597,
      "Ġorganism": 6598,
      "Ġconcrete": 6599,
      "Ġfinally": 6600,
      "Ġreaders": 6601,
      "Ġgreatly": 6602,
      "Ġprompt": 6603,
      "Ġfinding": 6604,
      "Ġvisible": 6605,
      "Ġcharging": 6606,
      "ĠProject": 6607,
      "Ġslightly": 6608,
      "Ġequipped": 6609,
      "Ġkeeps": 6610,
      "espread": 6611,
      "ĠArch": 6612,
      "Ġdrink": 6613,
      "Ġflows": 6614,
      "Ġelection": 6615,
      "Ġrevol": 6616,
      "Ġsafegu": 6617,
      "Ġfacilities": 6618,
      "Ġdrawn": 6619,
      "Ġgreenhouse": 6620,
      "Ġnecessarily": 6621,
      "Ġoptimize": 6622,
      "Ġlawn": 6623,
      "ĠResources": 6624,
      "Ġstreets": 6625,
      "Ġdiscussed": 6626,
      "onym": 6627,
      "Ġmarine": 6628,
      "ĠCommunic": 6629,
      "Ġtalking": 6630,
      "Ġprincip": 6631,
      "Ġvoltage": 6632,
      "Ġintegrity": 6633,
      "Ġbreakfast": 6634,
      "Ġera": 6635,
      "Ġbalanced": 6636,
      "Ġentirely": 6637,
      "Ġreflects": 6638,
      "Ġrouters": 6639,
      "Ġmagnitude": 6640,
      "Ġcollected": 6641,
      "Ġhistoric": 6642,
      "Ġmotiv": 6643,
      "Ġcollaborative": 6644,
      "Ġmolecular": 6645,
      "Ġframe": 6646,
      "proof": 6647,
      "Ä«r": 6648,
      "Ġmeaningful": 6649,
      "Ġarrange": 6650,
      "Ġupdated": 6651,
      "Ġupdates": 6652,
      "Ġassistance": 6653,
      "Ġmitochondr": 6654,
      "ĠSecurity": 6655,
      "ĠFranc": 6656,
      "Ġefficiently": 6657,
      "Ġwidth": 6658,
      "Ġwidespread": 6659,
      "Ġfarming": 6660,
      "Ġachieving": 6661,
      "Ġviolence": 6662,
      "Ġvirtual": 6663,
      "nesday": 6664,
      "Ġfestival": 6665,
      "Ġhundreds": 6666,
      "Ġbandwidth": 6667,
      "Ġdressing": 6668,
      "Ġruins": 6669,
      "ĠSafety": 6670,
      "Ġenabling": 6671,
      "Ġvictim": 6672,
      "ĠFebruary": 6673,
      "Ġsurrounding": 6674,
      "Ġprescribed": 6675,
      "Ġphenomen": 6676,
      "Ġenzymes": 6677,
      "ĠGerman": 6678,
      "ĠAssociation": 6679,
      "Ġlegislation": 6680,
      "Ġfinger": 6681,
      "Ġkitchen": 6682,
      "Ġprevents": 6683,
      "Ġexcellent": 6684,
      "ĠVenus": 6685,
      "ĠCovid": 6686,
      "ĠActivities": 6687,
      "ĠWednesday": 6688,
      "%.": 6689,
      ");": 6690,
      "23": 6691,
      "57": 6692,
      "60": 6693,
      "CV": 6694,
      "Comm": 6695,
      "DE": 6696,
      "Furthermore": 6697,
      "Get": 6698,
      "Imp": 6699,
      "My": 6700,
      "Most": 6701,
      "NG": 6702,
      "OS": 6703,
      "Of": 6704,
      "RI": 6705,
      "Russ": 6706,
      "Use": 6707,
      "Where": 6708,
      "Yes": 6709,
      "drag": 6710,
      "dden": 6711,
      "fit": 6712,
      "front": 6713,
      "got": 6714,
      "gate": 6715,
      "gue": 6716,
      "hid": 6717,
      "how": 6718,
      "ivery": 6719,
      "ixt": 6720,
      "jo": 6721,
      "ml": 6722,
      "morph": 6723,
      "ny": 6724,
      "oors": 6725,
      "oids": 6726,
      "ras": 6727,
      "son": 6728,
      "ta": 6729,
      "vol": 6730,
      "yroid": 6731,
      "Ġtide": 6732,
      "Ġtag": 6733,
      "Ġapart": 6734,
      "Ġauction": 6735,
      "inf": 6736,
      "Ġtheore": 6737,
      "Ġsending": 6738,
      "Ġcher": 6739,
      "itop": 6740,
      "Ġwider": 6741,
      "Ġpests": 6742,
      "Ġanten": 6743,
      "alse": 6744,
      "Ġfusion": 6745,
      "Ġbic": 6746,
      "Ġble": 6747,
      "Ġbands": 6748,
      "Ġinject": 6749,
      "Ġinhib": 6750,
      "Ġmold": 6751,
      "Ġmission": 6752,
      "icing": 6753,
      "Ġdent": 6754,
      "Ġdrain": 6755,
      "Ġhop": 6756,
      "Ġhidden": 6757,
      "Ġreward": 6758,
      "Ġreverse": 6759,
      "Ġreached": 6760,
      "ilarly": 6761,
      "ushing": 6762,
      "eton": 6763,
      "Ġlingu": 6764,
      "Ġnorthern": 6765,
      "Ġgro": 6766,
      "Ġyoga": 6767,
      "urning": 6768,
      "otal": 6769,
      "ĠAV": 6770,
      "ĠATP": 6771,
      "sey": 6772,
      "semb": 6773,
      "Ġpropos": 6774,
      "Ġprostate": 6775,
      "Ġsto": 6776,
      "Ġstation": 6777,
      "Ġstrict": 6778,
      "Ġstraw": 6779,
      "Ġasp": 6780,
      "âĢĻ.": 6781,
      "ĠCys": 6782,
      "ĠCode": 6783,
      "ĠCancer": 6784,
      "ading": 6785,
      "terial": 6786,
      "thlet": 6787,
      "antic": 6788,
      "Ġexists": 6789,
      "ĠPark": 6790,
      "ĠPeter": 6791,
      "ĠPlease": 6792,
      "oples": 6793,
      "Ġsudden": 6794,
      "Ġusage": 6795,
      "ivals": 6796,
      "ĠMart": 6797,
      "ĠMedic": 6798,
      "ĠBase": 6799,
      "ĠBiden": 6800,
      "umes": 6801,
      "ĠHCV": 6802,
      "ĠHitop": 6803,
      "oclet": 6804,
      "Ġimaging": 6805,
      "ĠEU": 6806,
      "ĠRob": 6807,
      "ĠDI": 6808,
      "ĠDise": 6809,
      "Ġshift": 6810,
      "Ġunn": 6811,
      "Ġspl": 6812,
      "Ġsports": 6813,
      "peror": 6814,
      "izer": 6815,
      "Ġdispl": 6816,
      "acters": 6817,
      "ĠNatural": 6818,
      "Ġcontrast": 6819,
      "ĠOudolf": 6820,
      "ĠLess": 6821,
      "ĠLead": 6822,
      "ĠLatin": 6823,
      "Ġclient": 6824,
      "Ġknew": 6825,
      "Ġ2000": 6826,
      "Ġdoor": 6827,
      "Ġmeal": 6828,
      "Ġperman": 6829,
      "ensional": 6830,
      "ifications": 6831,
      "Ġoverhe": 6832,
      "ologically": 6833,
      "apdrag": 6834,
      "Ġprem": 6835,
      "Ġtaught": 6836,
      "anged": 6837,
      "Ġsigned": 6838,
      "Ġquarter": 6839,
      "ietal": 6840,
      "iana": 6841,
      "Ġadds": 6842,
      "Ġblues": 6843,
      "ĠStand": 6844,
      "Ġnewborn": 6845,
      "lesh": 6846,
      "Ġinvasive": 6847,
      "Ġasset": 6848,
      "Ġdecide": 6849,
      "Ġcovers": 6850,
      "hedral": 6851,
      "irono": 6852,
      "efits": 6853,
      "Ġpresents": 6854,
      "Ġentit": 6855,
      "ĠEnd": 6856,
      "gets": 6857,
      "Ġexplo": 6858,
      "Ġformal": 6859,
      "Ġextent": 6860,
      "Ġcellular": 6861,
      "Ġorganization": 6862,
      "Ġorganisations": 6863,
      "ĠIndust": 6864,
      "Ġbasil": 6865,
      "Ġcareer": 6866,
      "Ġchoosing": 6867,
      "Ġequality": 6868,
      "Ġ65": 6869,
      "Ġmeasuring": 6870,
      "mega": 6871,
      "Ġlotteries": 6872,
      "Ġencryption": 6873,
      "Ġestimate": 6874,
      "Ġdrinking": 6875,
      "ĠAdminist": 6876,
      "Ġlooked": 6877,
      "Ġreceives": 6878,
      "ĠSeptember": 6879,
      "Ġdelve": 6880,
      "coin": 6881,
      "Ġcomputing": 6882,
      "Ġimmun": 6883,
      "Ġimmers": 6884,
      "Ġaddressed": 6885,
      "Ġoccurred": 6886,
      "Ġbiom": 6887,
      "Ġhighest": 6888,
      "clusive": 6889,
      "azing": 6890,
      "Ġfacility": 6891,
      "ĠUSSR": 6892,
      "Ġstructural": 6893,
      "Ġoptimization": 6894,
      "Ġaffecting": 6895,
      "Ġsynthesis": 6896,
      "Ġsyndrome": 6897,
      "Ġpathways": 6898,
      "Ġparagraph": 6899,
      "Ġbigger": 6900,
      "ĠPhD": 6901,
      "Ġemployment": 6902,
      "ĠCommission": 6903,
      "ographic": 6904,
      "Ġaudio": 6905,
      "Ġindicate": 6906,
      "adesa": 6907,
      "Ġmagnesium": 6908,
      "ependence": 6909,
      "Ġguidance": 6910,
      "Although": 6911,
      "Ġinsecurity": 6912,
      "ĠConsum": 6913,
      "ĠConsider": 6914,
      "ĠSoviets": 6915,
      "chester": 6916,
      "ĠPeace": 6917,
      "Ġelectrons": 6918,
      "Ġmessage": 6919,
      "Ġsubstances": 6920,
      "stronom": 6921,
      "Ġannoun": 6922,
      "Ġannual": 6923,
      "ĠGroup": 6924,
      "Ġadopted": 6925,
      "oultry": 6926,
      "Ġmalicious": 6927,
      "ĠHerat": 6928,
      "Ġappeal": 6929,
      "Ġscene": 6930,
      "Ġcovering": 6931,
      "Ġvacation": 6932,
      "Ġwonderful": 6933,
      "ENT": 6934,
      "Ġfixed": 6935,
      "Ġkidney": 6936,
      "ĠPolitical": 6937,
      "Ġdeposit": 6938,
      "Ġpumpkin": 6939,
      "ĠHyper": 6940,
      "Ġmanipulate": 6941,
      "ĠPutin": 6942,
      "Ġrelaxation": 6943,
      "Ġderived": 6944,
      "oscopy": 6945,
      "Ġfacilitate": 6946,
      "Ġtrends": 6947,
      "Ġbattle": 6948,
      "Ġdaugh": 6949,
      "Ġmanufacturers": 6950,
      "Ġpollutants": 6951,
      "Ġlaminate": 6952,
      "Ġdormancy": 6953,
      "Ġliquid": 6954,
      "ĠEmpire": 6955,
      "Ġnitrogen": 6956,
      "irens": 6957,
      "Ġpilot": 6958,
      "ĠPolicy": 6959,
      "Ġknee": 6960,
      "imicrobial": 6961,
      "ĠSCHOO": 6962,
      "Ġhygiene": 6963,
      "ĠHitopadesa": 6964,
      "=âĢĿ": 6965,
      "DU": 6966,
      "Doclet": 6967,
      "Hibernate": 6968,
      "Per": 6969,
      "Point": 6970,
      "SS": 6971,
      "Sustainable": 6972,
      "called": 6973,
      "gers": 6974,
      "km": 6975,
      "ked": 6976,
      "kins": 6977,
      "lar": 6978,
      "mes": 6979,
      "mar": 6980,
      "oS": 6981,
      "pers": 6982,
      "sue": 6983,
      "zÄģ": 6984,
      "Ð¾": 6985,
      "Ġul": 6986,
      "Ġtum": 6987,
      "Ġtough": 6988,
      "Ġtines": 6989,
      "Ġtiny": 6990,
      "Ġast": 6991,
      "inance": 6992,
      "inction": 6993,
      "het": 6994,
      "oned": 6995,
      "Ġske": 6996,
      "Ġsand": 6997,
      "ender": 6998,
      "itality": 6999,
      "itives": 7000,
      "itches": 7001,
      "itLock": 7002,
      "Ġpal": 7003,
      "Ġpapers": 7004,
      "Ġancest": 7005,
      "Ġfle": 7006,
      "Ġfill": 7007,
      "Ġbrown": 7008,
      "ica": 7009,
      "icks": 7010,
      "ione": 7011,
      "Ġden": 7012,
      "Ġdro": 7013,
      "Ġhung": 7014,
      "Ġhospital": 7015,
      "Ġrefe": 7016,
      "Ġreaction": 7017,
      "ilion": 7018,
      "Ġly": 7019,
      "Ġlies": 7020,
      "Ġlik": 7021,
      "Ġnations": 7022,
      "Ġnorm": 7023,
      "Ġnob": 7024,
      "idents": 7025,
      "cell": 7026,
      "ception": 7027,
      "ĠTime": 7028,
      "ĠTwo": 7029,
      "stone": 7030,
      "stract": 7031,
      "Ġforth": 7032,
      "urb": 7033,
      "rait": 7034,
      "raine": 7035,
      "ravel": 7036,
      "ĠAff": 7037,
      "Ġproceed": 7038,
      "Ġstable": 7039,
      "ĠSen": 7040,
      "ĠSal": 7041,
      "ĠSch": 7042,
      "ĠSte": 7043,
      "ĠSystems": 7044,
      "amber": 7045,
      "Ġhered": 7046,
      "Ġcancers": 7047,
      "ĠCap": 7048,
      "Ġalign": 7049,
      "Ġalike": 7050,
      "terol": 7051,
      "that": 7052,
      "illa": 7053,
      "Ġcomment": 7054,
      "Ġvend": 7055,
      "Ġchick": 7056,
      "Ġwearing": 7057,
      "ĠMEAL": 7058,
      "ĠMÄ«r": 7059,
      "ĠBir": 7060,
      "ĠWhere": 7061,
      "romagn": 7062,
      "ĠHaw": 7063,
      "ĠHaving": 7064,
      "ĠHarv": 7065,
      "ache": 7066,
      "Ġplenty": 7067,
      "pty": 7068,
      "ĠRich": 7069,
      "ĠDem": 7070,
      "ĠDifferent": 7071,
      "Ġshipping": 7072,
      "Ġunf": 7073,
      "ĠFuture": 7074,
      "Ġwasn": 7075,
      "ograp": 7076,
      "ogether": 7077,
      "Ġaband": 7078,
      "izers": 7079,
      "Ġdism": 7080,
      "ĠGood": 7081,
      "ĠGree": 7082,
      "ĠGarden": 7083,
      "ĠIns": 7084,
      "agues": 7085,
      "ĠNAS": 7086,
      "Ġresolution": 7087,
      "Ġcompost": 7088,
      "soft": 7089,
      "Ġarterial": 7090,
      "Ġgenome": 7091,
      "Ġmeant": 7092,
      "Ġtrials": 7093,
      "Ġpeoples": 7094,
      "Ġquiet": 7095,
      "ĠJD": 7096,
      "Ġknows": 7097,
      "Ġrecover": 7098,
      "Ġreproduction": 7099,
      "reement": 7100,
      "ĠStat": 7101,
      "ĠStars": 7102,
      "Ġrelief": 7103,
      "chnology": 7104,
      "erty": 7105,
      "ĠVis": 7106,
      "Ġassets": 7107,
      "ĠCho": 7108,
      "Ġtwice": 7109,
      "efined": 7110,
      "Ġartif": 7111,
      "ĠAfghan": 7112,
      "Ġpreserve": 7113,
      "Ġsmell": 7114,
      "Ġinterfaces": 7115,
      "Ġsurve": 7116,
      "Ġherb": 7117,
      "Ġmedium": 7118,
      "armac": 7119,
      "ometri": 7120,
      "Ġchecking": 7121,
      "Ġenvironmentally": 7122,
      "Ġsheet": 7123,
      "Ġaccessor": 7124,
      "Ġprominent": 7125,
      "Ġcentre": 7126,
      "Ġcenter": 7127,
      "Ġ2012": 7128,
      "Ġinflation": 7129,
      "Ġcharged": 7130,
      "Ġcharacters": 7131,
      "Ġinvolving": 7132,
      "Ġgrains": 7133,
      "Ġeducators": 7134,
      "Ġbreaking": 7135,
      "Ġdirections": 7136,
      "ĠArts": 7137,
      "Ġdriven": 7138,
      "Ġreceiving": 7139,
      "Ġlighting": 7140,
      "Ġbridge": 7141,
      "Ġdelivery": 7142,
      "Ġruns": 7143,
      "Ġruntime": 7144,
      "Ġcontained": 7145,
      "Ġpayloads": 7146,
      "Ġsafely": 7147,
      "Ġmarked": 7148,
      "Ġhappening": 7149,
      "Ġresponses": 7150,
      "ĠColle": 7151,
      "Ġprogramme": 7152,
      "ulfur": 7153,
      "Ġfatigue": 7154,
      "Ġspecialized": 7155,
      "Ġcirculation": 7156,
      "Ġ70": 7157,
      "ĠConst": 7158,
      "Ġlaun": 7159,
      "Ġconnecting": 7160,
      "Ġparallel": 7161,
      "ĠExpl": 7162,
      "ĠCommon": 7163,
      "Ġvolunte": 7164,
      "Ġabsol": 7165,
      "Ġreturned": 7166,
      "Genetics": 7167,
      "Ġnetworking": 7168,
      "Ġaimed": 7169,
      "ĠUser": 7170,
      "Ġnegot": 7171,
      "Ġparticipants": 7172,
      "Ġsatell": 7173,
      "Also": 7174,
      "Ġholistic": 7175,
      "Ġremaining": 7176,
      "Ġpromotes": 7177,
      "Ġbarrel": 7178,
      "Ġdeaths": 7179,
      "Ġinitiative": 7180,
      "Ġdatabases": 7181,
      "Ġopposite": 7182,
      "Ġfailed": 7183,
      "Ġfailure": 7184,
      "Ġbitter": 7185,
      "ĠMedical": 7186,
      "Ġinvestigation": 7187,
      "Ġlatency": 7188,
      "ECT": 7189,
      "Ġsequencing": 7190,
      "ĠAbout": 7191,
      "Ġinspired": 7192,
      "Ġmitigate": 7193,
      "Ġjoin": 7194,
      "Ġorders": 7195,
      "Ġincorporating": 7196,
      "Ġreligion": 7197,
      "Ġlimitations": 7198,
      "Ġcitizenship": 7199,
      "Ġfruit": 7200,
      "Ġemails": 7201,
      "Ġprosper": 7202,
      "Ġ1960": 7203,
      "Ġholiday": 7204,
      "Ġmoxibustion": 7205,
      "ĠTemple": 7206,
      "Ġargument": 7207,
      "Ġneurolog": 7208,
      "Ġupper": 7209,
      "Ġcardiac": 7210,
      "Ġdeployment": 7211,
      "Ġbottom": 7212,
      "Ġreplaced": 7213,
      "Ġconvenient": 7214,
      "ĠPoetry": 7215,
      "ĠMusic": 7216,
      "Ġcolleagues": 7217,
      "Ġrapidly": 7218,
      "ĠCharles": 7219,
      "nsic": 7220,
      "olesterol": 7221,
      "Ġopinion": 7222,
      "Ġfrustr": 7223,
      "Ġgastric": 7224,
      "Ġconflict": 7225,
      "Ġlaboratory": 7226,
      "ĠHelp": 7227,
      "Ġintensity": 7228,
      "Ġdistributed": 7229,
      "ĠMarcia": 7230,
      "Ġresilience": 7231,
      "Ġpretty": 7232,
      "Ġunderstood": 7233,
      "Ġtolerance": 7234,
      "Ġrevenue": 7235,
      "Ġlungs": 7236,
      "Ġdrivers": 7237,
      "Ġintricate": 7238,
      "American": 7239,
      "Ġstakeholders": 7240,
      "ĠWindows": 7241,
      "ĠUkraine": 7242,
      "Ġphenomenon": 7243,
      "Ġentitled": 7244,
      "itLocker": 7245,
      "ĠMEALS": 7246,
      "ĠMÄ«rzÄģ": 7247,
      "29": 7248,
      "AB": 7249,
      "CT": 7250,
      "Col": 7251,
      "Em": 7252,
      "From": 7253,
      "Have": 7254,
      "II": 7255,
      "Irish": 7256,
      "LI": 7257,
      "Lear": 7258,
      "MU": 7259,
      "TH": 7260,
      "Up": 7261,
      "aus": 7262,
      "afe": 7263,
      "bound": 7264,
      "cen": 7265,
      "cop": 7266,
      "cup": 7267,
      "cuss": 7268,
      "diagn": 7269,
      "fly": 7270,
      "food": 7271,
      "gical": 7272,
      "lock": 7273,
      "nam": 7274,
      "oom": 7275,
      "pol": 7276,
      "rated": 7277,
      "tra": 7278,
      "uel": 7279,
      "west": 7280,
      "yst": 7281,
      "ÃŃ": 7282,
      "Ð°": 7283,
      "ĠÐ": 7284,
      "Ġtattoos": 7285,
      "inence": 7286,
      "real": 7287,
      "erated": 7288,
      "Ġson": 7289,
      "Ġcategories": 7290,
      "ana": 7291,
      "anish": 7292,
      "itarian": 7293,
      "Ġwarehouse": 7294,
      "orrow": 7295,
      "Ġfoul": 7296,
      "Ġbacks": 7297,
      "Ġinhab": 7298,
      "edge": 7299,
      "edia": 7300,
      "Ġmales": 7301,
      "Ġmilk": 7302,
      "Ġmesh": 7303,
      "arat": 7304,
      "roved": 7305,
      "asure": 7306,
      "ctu": 7307,
      "Ġeco": 7308,
      "Ġrein": 7309,
      "Ġreign": 7310,
      "Ġreplic": 7311,
      "uster": 7312,
      "etite": 7313,
      "Ġli": 7314,
      "Ġlists": 7315,
      "Ġnom": 7316,
      "Ġnone": 7317,
      "Ġnons": 7318,
      "Ġgal": 7319,
      "Ġgrew": 7320,
      "Ġgiant": 7321,
      "Ġgardens": 7322,
      "idity": 7323,
      "uted": 7324,
      "ĠTest": 7325,
      "ĠTimes": 7326,
      "otive": 7327,
      "uls": 7328,
      "ulum": 7329,
      "Ġongoing": 7330,
      "ĠAS": 7331,
      "ĠAir": 7332,
      "vert": 7333,
      "Ġprove": 7334,
      "unning": 7335,
      "Ġstar": 7336,
      "Ġstack": 7337,
      "Ġstatic": 7338,
      "ĠSomal": 7339,
      "Ġconventional": 7340,
      "ams": 7341,
      "ifest": 7342,
      "menting": 7343,
      "odel": 7344,
      "ĠCare": 7345,
      "ĠCirc": 7346,
      "aby": 7347,
      "ĠPsych": 7348,
      "Ġcholesterol": 7349,
      "iva": 7350,
      "ivating": 7351,
      "ĠMich": 7352,
      "ĠMount": 7353,
      "ĠMaterial": 7354,
      "ĠBal": 7355,
      "ĠBar": 7356,
      "ĠBio": 7357,
      "Ġhaz": 7358,
      "Ġhaven": 7359,
      "ĠHor": 7360,
      "ĠHirono": 7361,
      "Ġrid": 7362,
      "Ġlets": 7363,
      "ĠDav": 7364,
      "ĠDown": 7365,
      "ĠDespite": 7366,
      "Ġunp": 7367,
      "Ġunus": 7368,
      "Ġuncom": 7369,
      "Ġspaces": 7370,
      "ĠFind": 7371,
      "ĠFace": 7372,
      "dule": 7373,
      "Ġnotable": 7374,
      "Ġabilities": 7375,
      "Ġintense": 7376,
      "outs": 7377,
      "ĠGH": 7378,
      "ĠOh": 7379,
      "Ġalloc": 7380,
      "Ġreson": 7381,
      "ansion": 7382,
      "Ġwilling": 7383,
      "ipes": 7384,
      "ĠLa": 7385,
      "ĠLong": 7386,
      "ĠLHC": 7387,
      "Ġclen": 7388,
      "Ġclarity": 7389,
      "asters": 7390,
      "Ġarise": 7391,
      "Ġargue": 7392,
      "Ġmanual": 7393,
      "Ġmanager": 7394,
      "rix": 7395,
      "rian": 7396,
      "earc": 7397,
      "Ġju": 7398,
      "Ġempty": 7399,
      "Ġoverw": 7400,
      "Ġknowing": 7401,
      "iented": 7402,
      "Ġactively": 7403,
      "itely": 7404,
      "Ġpersons": 7405,
      "berg": 7406,
      "ovascular": 7407,
      "onday": 7408,
      "ractory": 7409,
      "Inc": 7410,
      "ĠKid": 7411,
      "ĠKier": 7412,
      "Ġtransmit": 7413,
      "Ġdecade": 7414,
      "Ġcoins": 7415,
      "Ġmetal": 7416,
      "hedul": 7417,
      "Ġkeys": 7418,
      "everal": 7419,
      "Ġcrew": 7420,
      "Ġinstances": 7421,
      "Ġintermedi": 7422,
      "forest": 7423,
      "Ġdiscovery": 7424,
      "Ġflat": 7425,
      "Ġclassic": 7426,
      "Ġgrows": 7427,
      "Ġinsight": 7428,
      "Ġseeks": 7429,
      "Ġpersonality": 7430,
      "Ġdepersonalization": 7431,
      "ditional": 7432,
      "lementary": 7433,
      "Ġdefects": 7434,
      "Ġedge": 7435,
      "ĠPlus": 7436,
      "Ġbeneath": 7437,
      "Ġrises": 7438,
      "Ġreader": 7439,
      "Ġplane": 7440,
      "Ġmyself": 7441,
      "ĠIndigenous": 7442,
      "athy": 7443,
      "Ġidentification": 7444,
      "Ġbackground": 7445,
      "Ġpainting": 7446,
      "Ġcareful": 7447,
      "income": 7448,
      "including": 7449,
      "Ġhandling": 7450,
      "Ġdemands": 7451,
      "Ġessay": 7452,
      "Ġmemb": 7453,
      "Ġslide": 7454,
      "Ġspecification": 7455,
      "Ġchores": 7456,
      "Ġequitable": 7457,
      "Ġgameplay": 7458,
      "Ġswallow": 7459,
      "Ġdirectors": 7460,
      "Ġtherapist": 7461,
      "arsh": 7462,
      "ĠAdv": 7463,
      "ĠXDoclet": 7464,
      "otechnology": 7465,
      "Ġlights": 7466,
      "Ġconsume": 7467,
      "Ġrestric": 7468,
      "Ġcorpor": 7469,
      "Ġembed": 7470,
      "Ġcontainers": 7471,
      "undry": 7472,
      "Ġcatch": 7473,
      "ĠHealthy": 7474,
      "Ġdifficulty": 7475,
      "Ġ179": 7476,
      "Ġpull": 7477,
      "ĠConf": 7478,
      "Ġcriter": 7479,
      "Ġlaundry": 7480,
      "Step": 7481,
      "ĠWithout": 7482,
      "ĠDischarge": 7483,
      "Ġwarning": 7484,
      "Ġorigins": 7485,
      "Ġintroducing": 7486,
      "ĠGovernment": 7487,
      "Ġviews": 7488,
      "ĠComput": 7489,
      "Ġbreakdown": 7490,
      "Ġholding": 7491,
      "ĠDoes": 7492,
      "Ġcalculated": 7493,
      "Ġbullying": 7494,
      "Ġrebates": 7495,
      "ĠAPIs": 7496,
      "Ġtargets": 7497,
      "Ġwebsites": 7498,
      "Ġcaptured": 7499,
      "ĠContent": 7500,
      "ĠPowerPoint": 7501,
      "Ġburning": 7502,
      "Ġopponent": 7503,
      "Ġmicrobi": 7504,
      "Ġprocedural": 7505,
      "Ġfeeding": 7506,
      "Ġnewspaper": 7507,
      "Ġaccepted": 7508,
      "Ġethnic": 7509,
      "Ġvulnerability": 7510,
      "ĠSecond": 7511,
      "Ġmanufacturing": 7512,
      "Ġattempts": 7513,
      "Ġstimulate": 7514,
      "Ġprinting": 7515,
      "Ġboosting": 7516,
      "Ġdemonstrated": 7517,
      "Ġecosystem": 7518,
      "Ġordinary": 7519,
      "Ġbroadcast": 7520,
      "Ġrecommendations": 7521,
      "watering": 7522,
      "Ġagricultural": 7523,
      "Ġteachers": 7524,
      "Ġearthquake": 7525,
      "Ġrevealed": 7526,
      "Ġtransportation": 7527,
      "Ġgraphics": 7528,
      "iffs": 7529,
      "Ġempower": 7530,
      "Ġhonor": 7531,
      "ĠPresident": 7532,
      "Ġbattery": 7533,
      "Ġnavigate": 7534,
      "Ġbeliefs": 7535,
      "ĠMoon": 7536,
      "Ġstruggle": 7537,
      "Ġdysplasia": 7538,
      "ranean": 7539,
      "Reg": 7540,
      "Ġmissing": 7541,
      "ĠIncre": 7542,
      "Ġsilver": 7543,
      "MAP": 7544,
      "Ġimagine": 7545,
      "Ġfostering": 7546,
      "Ġmicrow": 7547,
      "Ġenabled": 7548,
      "Ġexecutive": 7549,
      "Ġsupplementation": 7550,
      "Ġtransparent": 7551,
      "ĠLearning": 7552,
      "Ġterritory": 7553,
      "Ġtower": 7554,
      "ĠEss": 7555,
      "Ġillnesses": 7556,
      "Ġarchitecture": 7557,
      "Ġthoroughly": 7558,
      "Ġnarrative": 7559,
      "Ġantioxidant": 7560,
      "ĠPersistence": 7561,
      "ĠJuly": 7562,
      "ĠStrateg": 7563,
      "Ġobstac": 7564,
      "Ġgirls": 7565,
      "ĠService": 7566,
      "Ġsucculents": 7567,
      "Ġrenewable": 7568,
      "ĠMicrosoft": 7569,
      "Ġcoffee": 7570,
      "ĠLouis": 7571,
      "Ġpractitioners": 7572,
      "Ġvelocity": 7573,
      "Ġsophisticated": 7574,
      "Ġsucceed": 7575,
      "Ġprincipal": 7576,
      "Ġdrainage": 7577,
      "ometriosis": 7578,
      "ĠCollege": 7579,
      "Ġabsolute": 7580,
      "02": 7581,
      "500": 7582,
      "85": 7583,
      "Because": 7584,
      "CE": 7585,
      "Despite": 7586,
      "Even": 7587,
      "Finally": 7588,
      "Ke": 7589,
      "Rec": 7590,
      "Set": 7591,
      "Today": 7592,
      "agh": 7593,
      "bane": 7594,
      "cur": 7595,
      "dependent": 7596,
      "elect": 7597,
      "lied": 7598,
      "lights": 7599,
      "nce": 7600,
      "person": 7601,
      "rant": 7602,
      "well": 7603,
      "ya": 7604,
      "ycle": 7605,
      "zhe": 7606,
      "||": 7607,
      "Â·": 7608,
      "Ġ:": 7609,
      "Ġic": 7610,
      "Ġtables": 7611,
      "Ġtried": 7612,
      "Ġathlet": 7613,
      "reens": 7614,
      "Ġsad": 7615,
      "esity": 7616,
      "ano": 7617,
      "anks": 7618,
      "itis": 7619,
      "isbane": 7620,
      "Ġwond": 7621,
      "Ġpp": 7622,
      "Ġpra": 7623,
      "Ġpush": 7624,
      "Ġpoultry": 7625,
      "Ġpione": 7626,
      "Ġfab": 7627,
      "Ġfault": 7628,
      "Ġballs": 7629,
      "Ġbrief": 7630,
      "Ġmir": 7631,
      "Ġdivid": 7632,
      "Ġdying": 7633,
      "Ġhat": 7634,
      "Ġhur": 7635,
      "Ġhill": 7636,
      "ilation": 7637,
      "omic": 7638,
      "etime": 7639,
      "Ġlinking": 7640,
      "Ġlying": 7641,
      "Ġlosing": 7642,
      "Ġnurt": 7643,
      "Ġgall": 7644,
      "lyce": 7645,
      "lysis": 7646,
      "cean": 7647,
      "imeter": 7648,
      "olition": 7649,
      "Ġbear": 7650,
      "Ġforget": 7651,
      "urated": 7652,
      "chron": 7653,
      "ota": 7654,
      "ulmonary": 7655,
      "ĠAge": 7656,
      "ĠIll": 7657,
      "ĠIde": 7658,
      "Ġorph": 7659,
      "amin": 7660,
      "iform": 7661,
      "ifts": 7662,
      "mental": 7663,
      "oding": 7664,
      "odilution": 7665,
      "ĠCross": 7666,
      "ĠCRA": 7667,
      "Ġalien": 7668,
      "Ġdele": 7669,
      "thal": 7670,
      "ppler": 7671,
      "isting": 7672,
      "kega": 7673,
      "Ġchard": 7674,
      "Ġweaving": 7675,
      "ĠMem": 7676,
      "ĠMult": 7677,
      "ĠBur": 7678,
      "ĠBrown": 7679,
      "osh": 7680,
      "osity": 7681,
      "umber": 7682,
      "umatic": 7683,
      "Ġneither": 7684,
      "ocaine": 7685,
      "Ġring": 7686,
      "Ġrub": 7687,
      "Ġrural": 7688,
      "Ġsees": 7689,
      "Ġplague": 7690,
      "ĠRot": 7691,
      "ĠRout": 7692,
      "Ġspo": 7693,
      "ĠFam": 7694,
      "ĠForm": 7695,
      "Ġ1000": 7696,
      "ogens": 7697,
      "Ġimped": 7698,
      "Ġabund": 7699,
      "Ġabstract": 7700,
      "alling": 7701,
      "Ġdisapp": 7702,
      "ĠGra": 7703,
      "ĠInnov": 7704,
      "agers": 7705,
      "ĠObs": 7706,
      "ĠLow": 7707,
      "ĠLiving": 7708,
      "ĠThomas": 7709,
      "Ġcompos": 7710,
      "Ġkern": 7711,
      "âĢĿ)": 7712,
      "Ġ23": 7713,
      "Ġappa": 7714,
      "Ġapplying": 7715,
      "Ġcaught": 7716,
      "Ġoutbre": 7717,
      "Ġscar": 7718,
      "aven": 7719,
      "avirus": 7720,
      "Ġjew": 7721,
      "Ġpartner": 7722,
      "rican": 7723,
      "apes": 7724,
      "Ġthereby": 7725,
      "Ġchildhood": 7726,
      "Ġagents": 7727,
      "Ġdesert": 7728,
      "plete": 7729,
      "ertility": 7730,
      "Ġphr": 7731,
      "Ġamb": 7732,
      "Ġworkers": 7733,
      "Ġfung": 7734,
      "Ġtwenty": 7735,
      "Ġcars": 7736,
      "oyd": 7737,
      "Ġwatering": 7738,
      "Ġentering": 7739,
      "Ġstring": 7740,
      "Ġinspect": 7741,
      "Ġexplored": 7742,
      "arming": 7743,
      "Ġsocially": 7744,
      "Ġsocietal": 7745,
      "Ġadvis": 7746,
      "Ġplanting": 7747,
      "ĠRequ": 7748,
      "Ġfacts": 7749,
      "Ġcompleted": 7750,
      "Ġbench": 7751,
      "Ġmining": 7752,
      "Ġminister": 7753,
      "Ġsubs": 7754,
      "Ġsubstr": 7755,
      "aws": 7756,
      "Ġpromising": 7757,
      "Ġ400": 7758,
      "Ġperforming": 7759,
      "Ġperformances": 7760,
      "Ġfinds": 7761,
      "iverside": 7762,
      "Ġguess": 7763,
      "generation": 7764,
      "Ġphysic": 7765,
      "Ġphysics": 7766,
      "Ġcreates": 7767,
      "Ġimprovements": 7768,
      "engers": 7769,
      "Ġrealm": 7770,
      "Ġcontributed": 7771,
      "Ġdrinks": 7772,
      "Ġmatch": 7773,
      "Ġconsumed": 7774,
      "Ġcorruption": 7775,
      "Ġposts": 7776,
      "Ġopened": 7777,
      "Ġaddresses": 7778,
      "Ġrepresenting": 7779,
      "Ġsuccessfully": 7780,
      "Ġdietary": 7781,
      "Ġelig": 7782,
      "Ġhappened": 7783,
      "clusion": 7784,
      "Ġdifficulties": 7785,
      "Ġtrem": 7786,
      "Ġoptimizing": 7787,
      "2020": 7788,
      "Ġpollin": 7789,
      "Ġcritic": 7790,
      "Stud": 7791,
      "ĠDisk": 7792,
      "Ġoriginated": 7793,
      "Ġseconds": 7794,
      "ĠPhysical": 7795,
      "iterranean": 7796,
      "ĠCommit": 7797,
      "REN": 7798,
      "Ġscripts": 7799,
      "Ġcrim": 7800,
      "ĠAtt": 7801,
      "Ġcement": 7802,
      "Ġintegrated": 7803,
      "Ġpercentage": 7804,
      "Ġcontinuously": 7805,
      "Ġ2009": 7806,
      "flies": 7807,
      "Ġthreatened": 7808,
      "ilius": 7809,
      "Ġsectors": 7810,
      "Ġversions": 7811,
      "Ġtells": 7812,
      "Ġlogic": 7813,
      "ATION": 7814,
      "Ġfigures": 7815,
      "Once": 7816,
      "Ġburied": 7817,
      "Ġframes": 7818,
      "Ġbanking": 7819,
      "ĠMediterranean": 7820,
      "Ġaccurately": 7821,
      "Prot": 7822,
      "Ġupdate": 7823,
      "ĠRegular": 7824,
      "OMbag": 7825,
      "Ġmixed": 7826,
      "ĠEmperor": 7827,
      "Ġdependent": 7828,
      "Ġdemonstrate": 7829,
      "Ġaccompan": 7830,
      "ĠBrisbane": 7831,
      "Ġperception": 7832,
      "Ġdisplayed": 7833,
      "Ġsaved": 7834,
      "Ġbabies": 7835,
      "Ġdanger": 7836,
      "Ġbatteries": 7837,
      "Ġdistinctive": 7838,
      "Ġadministr": 7839,
      "Ġattractive": 7840,
      "Ġwait": 7841,
      "ĠRedu": 7842,
      "ĠFlip": 7843,
      "Ġdegree": 7844,
      "Ġthousand": 7845,
      "ĠCompany": 7846,
      "Ġnucle": 7847,
      "Ġcardiovascular": 7848,
      "iotics": 7849,
      "Ġtrigger": 7850,
      "ILD": 7851,
      "ĠOrganization": 7852,
      "Ġhormones": 7853,
      "Ġtransparency": 7854,
      "Ġsummary": 7855,
      "Ġanalyzer": 7856,
      "Ġeliminate": 7857,
      "ĠVermilion": 7858,
      "Ġmetabolism": 7859,
      "Ġexpertise": 7860,
      "Ġsupplies": 7861,
      "unnett": 7862,
      "Ġpolitics": 7863,
      "Ġcouple": 7864,
      "ĠCHILD": 7865,
      "Ġtickets": 7866,
      "Ġbarriers": 7867,
      "Ġweapons": 7868,
      "Ġcorresponding": 7869,
      "Ġtango": 7870,
      "ĠScientists": 7871,
      "Ġscholars": 7872,
      "Ġpantry": 7873,
      "ĠJewish": 7874,
      "Ġtroops": 7875,
      "athered": 7876,
      "Ġdiscrimination": 7877,
      "GMOs": 7878,
      "Ġdinner": 7879,
      "ĠSympt": 7880,
      "Ġalpha": 7881,
      "hidrosis": 7882,
      "Ġdentist": 7883,
      "Ġunnecessary": 7884,
      "Ġhungry": 7885,
      "Ġlyrics": 7886,
      "zheimer": 7887,
      "Ġorphan": 7888,
      "kegaard": 7889,
      "\",": 7890,
      "'ll": 7891,
      ".).": 7892,
      "25": 7893,
      "200": 7894,
      "47": 7895,
      "89": 7896,
      "AI": 7897,
      "Am": 7898,
      "Brit": 7899,
      "Based": 7900,
      "Cs": 7901,
      "EX": 7902,
      "Fe": 7903,
      "First": 7904,
      "HO": 7905,
      "Human": 7906,
      "MD": 7907,
      "MI": 7908,
      "NO": 7909,
      "Please": 7910,
      "SC": 7911,
      "Since": 7912,
      "TOMbag": 7913,
      "aic": 7914,
      "bed": 7915,
      "dim": 7916,
      "dep": 7917,
      "eine": 7918,
      "from": 7919,
      "ias": 7920,
      "ihood": 7921,
      "rality": 7922,
      "tity": 7923,
      "vision": 7924,
      "what": 7925,
      "xml": 7926,
      "á¹": 7927,
      "Ġrow": 7928,
      "Ġastronomy": 7929,
      "ona": 7930,
      "oning": 7931,
      "atile": 7932,
      "atric": 7933,
      "atomy": 7934,
      "esides": 7935,
      "itz": 7936,
      "itivity": 7937,
      "isher": 7938,
      "Ġwise": 7939,
      "Ġpir": 7940,
      "Ġpure": 7941,
      "Ġanemia": 7942,
      "ora": 7943,
      "oriented": 7944,
      "Ġfell": 7945,
      "Ġfilt": 7946,
      "Ġfitness": 7947,
      "Ġfalse": 7948,
      "Ġbind": 7949,
      "ouge": 7950,
      "edu": 7951,
      "Ġmort": 7952,
      "Ġmild": 7953,
      "icit": 7954,
      "icul": 7955,
      "arry": 7956,
      "roke": 7957,
      "Ġhom": 7958,
      "Ġthir": 7959,
      "Ġthrow": 7960,
      "Ġerect": 7961,
      "etary": 7962,
      "Ġnurs": 7963,
      "Ġgate": 7964,
      "Ġgest": 7965,
      "Ġgum": 7966,
      "Ġgathered": 7967,
      "ĠTake": 7968,
      "ĠTex": 7969,
      "igating": 7970,
      "ĠAges": 7971,
      "sex": 7972,
      "Ġproof": 7973,
      "Ġproport": 7974,
      "Ġstamps": 7975,
      "ĠIcen": 7976,
      "ĠSk": 7977,
      "ĠSum": 7978,
      "ĠSilius": 7979,
      "Ġconce": 7980,
      "Ġorthodont": 7981,
      "elve": 7982,
      "aming": 7983,
      "ifiers": 7984,
      "Ġhel": 7985,
      "Ġheap": 7986,
      "Ġwithstand": 7987,
      "aded": 7988,
      "Ġdealing": 7989,
      "ĠPal": 7990,
      "ĠPay": 7991,
      "ĠPenn": 7992,
      "ĠPunnett": 7993,
      "Ġsuited": 7994,
      "Ġchocol": 7995,
      "ĠMain": 7996,
      "ĠMary": 7997,
      "ĠMagn": 7998,
      "ĠMonday": 7999,
      "ĠBul": 8000,
      "ĠBody": 8001,
      "ĠBank": 8002,
      "ĠBefore": 8003,
      "osamine": 8004,
      "Ġenorm": 8005,
      "ĠWay": 8006,
      "ĠWork": 8007,
      "ĠWills": 8008,
      "uming": 8009,
      "anda": 8010,
      "emor": 8011,
      "lder": 8012,
      "Ġplate": 8013,
      "ĠRome": 8014,
      "ĠRiver": 8015,
      "ĠRIC": 8016,
      "Ġshore": 8017,
      "Ġshock": 8018,
      "Ġunion": 8019,
      "Ġunravel": 8020,
      "Ġspinal": 8021,
      "Ġspots": 8022,
      "arts": 8023,
      "ĠFact": 8024,
      "ĠFran": 8025,
      "duced": 8026,
      "Ġintest": 8027,
      "redict": 8028,
      "Ġworst": 8029,
      "Ġdisaster": 8030,
      "Ġadvent": 8031,
      "elled": 8032,
      "They": 8033,
      "ĠInv": 8034,
      "ĠNap": 8035,
      "ĠOb": 8036,
      "ĠOd": 8037,
      "ĠOper": 8038,
      "aste": 8039,
      "Ġcompr": 8040,
      "sole": 8041,
      "Ġkil": 8042,
      "rue": 8043,
      "Ġ27": 8044,
      "Ġ28": 8045,
      "ĠUt": 8046,
      "Ġappetite": 8047,
      "earing": 8048,
      "Ġpermission": 8049,
      "Ġoutd": 8050,
      "Ġschedul": 8051,
      "Ġcommitted": 8052,
      "riculum": 8053,
      "Ġourselves": 8054,
      "Ġtraject": 8055,
      "Ġoverweight": 8056,
      "ords": 8057,
      "Ġproduces": 8058,
      "iances": 8059,
      "Ġdevelopments": 8060,
      "Ġblind": 8061,
      "plex": 8062,
      "ubin": 8063,
      "Ġinvent": 8064,
      "Ġmakeup": 8065,
      "Ġgrasp": 8066,
      "aked": 8067,
      "Ġwellness": 8068,
      "ractice": 8069,
      "Ġinfected": 8070,
      "ĠVar": 8071,
      "ĠAnim": 8072,
      "Ġobesity": 8073,
      "Ġamazing": 8074,
      "Ġpride": 8075,
      "Ġproud": 8076,
      "Ġfunding": 8077,
      "Ġtransfers": 8078,
      "Ġtransplant": 8079,
      "Ġremark": 8080,
      "ĠUnder": 8081,
      "Ġ1919": 8082,
      "Ġsurgical": 8083,
      "Ġclassified": 8084,
      "Ġimproves": 8085,
      "Ġvalve": 8086,
      "Ġeverywhere": 8087,
      "inked": 8088,
      "Ġextension": 8089,
      "Ġdesignated": 8090,
      "Ġdeficiency": 8091,
      "Ġadvances": 8092,
      "Ġpopul": 8093,
      "Ġpursue": 8094,
      "ĠPlace": 8095,
      "Ġchecks": 8096,
      "Ġorganize": 8097,
      "Ġminor": 8098,
      "Ġpotato": 8099,
      "connected": 8100,
      "Ġtemporary": 8101,
      "Ġdistress": 8102,
      "Ġdistract": 8103,
      "Ġdonor": 8104,
      "Ġdonors": 8105,
      "Ġendometriosis": 8106,
      "ĠQoS": 8107,
      "Ġcharges": 8108,
      "Ġcurious": 8109,
      "Ġdemocracy": 8110,
      "Ġpassing": 8111,
      "Ġdirector": 8112,
      "ĠAlzheimer": 8113,
      "Ġinvesting": 8114,
      "Ġrealize": 8115,
      "ĠArm": 8116,
      "Ġglobe": 8117,
      "Ġessentially": 8118,
      "Ġmatters": 8119,
      "Ġbrand": 8120,
      "ĠSelect": 8121,
      "ĠShould": 8122,
      "Ġembra": 8123,
      "Ġdominant": 8124,
      "Ġstrongly": 8125,
      "Ġmaintained": 8126,
      "ĠSpanish": 8127,
      "ĠColchester": 8128,
      "Ġterrain": 8129,
      "Ġobserve": 8130,
      "Ġcircuit": 8131,
      "Ġtextbook": 8132,
      "Station": 8133,
      "Ġhardware": 8134,
      "Ġoriginally": 8135,
      "Ġsecondary": 8136,
      "Ġstret": 8137,
      "ĠPhil": 8138,
      "Ġenhancing": 8139,
      "Ġsuffering": 8140,
      "Ġemployee": 8141,
      "Ġloose": 8142,
      "Ġabsence": 8143,
      "Ġ150": 8144,
      "Ġdeeply": 8145,
      "gument": 8146,
      "nership": 8147,
      "ĠPrepare": 8148,
      "Ġerrors": 8149,
      "1868": 8150,
      "Ġcalcium": 8151,
      "Ġwinding": 8152,
      "Ġautomated": 8153,
      "Ġhydrogen": 8154,
      "Ġslowly": 8155,
      "Ġscreenings": 8156,
      "Ġcounsel": 8157,
      "Ġlogging": 8158,
      "Ġminimal": 8159,
      "ĠQuest": 8160,
      "Ġmorning": 8161,
      "Ġprobability": 8162,
      "Ġheavily": 8163,
      "Ġvegetable": 8164,
      "Ġprocedure": 8165,
      "ĠCentral": 8166,
      "ĠMedia": 8167,
      "Ġaccuracy": 8168,
      "Ġinvestigate": 8169,
      "Ġdecreased": 8170,
      "Ġmonitor": 8171,
      "Ġjoints": 8172,
      "Ġ1990": 8173,
      "3099": 8174,
      "ĠPeriod": 8175,
      "Ġsubstance": 8176,
      "ECA": 8177,
      "Ġfavour": 8178,
      "Ġstatue": 8179,
      "ĠSwiss": 8180,
      "Ġprivacy": 8181,
      "Ġhorizontal": 8182,
      "ĠGeorg": 8183,
      "Ġutilized": 8184,
      "Ġcarrying": 8185,
      "Ġcornflower": 8186,
      "ĠPaul": 8187,
      "ĠAgency": 8188,
      "Ġalternatives": 8189,
      "Ġallev": 8190,
      "Ġprinted": 8191,
      "Ġinstitution": 8192,
      "ĠRepublic": 8193,
      "ĠEngineering": 8194,
      "Ġsteel": 8195,
      "Ġdebate": 8196,
      "Ġincorporate": 8197,
      "Ġfilm": 8198,
      "Ġdivide": 8199,
      "ĠCOVID": 8200,
      "Ġfriendly": 8201,
      "ĠMean": 8202,
      "Ġschedule": 8203,
      "Ġfighting": 8204,
      "Ġvirtually": 8205,
      "Ġclaims": 8206,
      "Ġkidneys": 8207,
      "Ġflexible": 8208,
      "Ġshopping": 8209,
      "ĠTemperature": 8210,
      "Ġinjuries": 8211,
      "Ġobtained": 8212,
      "ĠUpd": 8213,
      "Ġregardless": 8214,
      "ELECT": 8215,
      "Ġfoster": 8216,
      "Ġuncertain": 8217,
      "borne": 8218,
      "ĠEthiop": 8219,
      "rolls": 8220,
      "Ġmagic": 8221,
      "Ġcolumns": 8222,
      "ĠLearn": 8223,
      "Ġqualified": 8224,
      "Ġimperial": 8225,
      "Ġfavorite": 8226,
      "Who": 8227,
      "Ġprolong": 8228,
      "Ġmaximum": 8229,
      "Ġelevated": 8230,
      "About": 8231,
      "ĠHunster": 8232,
      "Ġchromosomes": 8233,
      "Ġaerobic": 8234,
      "Ġprioritize": 8235,
      "Afrobeat": 8236,
      "Ġcompatible": 8237,
      "Ġappreciate": 8238,
      "forcement": 8239,
      "Ġinequality": 8240,
      "Ġduplic": 8241,
      "Ġphysiology": 8242,
      "ĠCourt": 8243,
      "Ġarchaeological": 8244,
      "Ġaxis": 8245,
      "Ġbudget": 8246,
      "Ġscenario": 8247,
      "ĠMcCarthy": 8248,
      "Ġbiodiversity": 8249,
      "ĠEncourage": 8250,
      "ĠFestival": 8251,
      "Ġappointment": 8252,
      "Ġrecycling": 8253,
      "âĸł": 8254,
      "ĠDigital": 8255,
      "Russian": 8256,
      "ixture": 8257,
      "morphia": 8258,
      "ĠMedicine": 8259,
      "ĠDisease": 8260,
      "Ġpermanent": 8261,
      "Ġoverheating": 8262,
      "ĠSCHOOL": 8263,
      "Ġulcers": 8264,
      "ĠAffairs": 8265,
      "ĠNASA": 8266,
      "ĠJDK": 8267,
      "armacological": 8268,
      "Ġinhabit": 8269,
      "Ġunusual": 8270,
      "earchers": 8271,
      "ĠKierkegaard": 8272,
      "Ġcriteria": 8273,
      "Ġmicrobiome": 8274,
      "Ġmicrowave": 8275,
      "Ġathletes": 8276,
      "ĠRouters": 8277,
      "ĠCommittee": 8278,
      "Ġaccompanied": 8279,
      "Ġchocolate": 8280,
      "ĠNapole": 8281,
      "18682": 8282,
      "309918682": 8283,
      "!âĢĿ": 8284,
      "24": 8285,
      "63": 8286,
      "65": 8287,
      "BT": 8288,
      "Che": 8289,
      "EE": 8290,
      "MB": 8291,
      "MP": 8292,
      "MTP": 8293,
      "Non": 8294,
      "Other": 8295,
      "Pe": 8296,
      "Pre": 8297,
      "RM": 8298,
      "Rem": 8299,
      "SL": 8300,
      "ST": 8301,
      "Sometimes": 8302,
      "[/": 8303,
      "ait": 8304,
      "aur": 8305,
      "ael": 8306,
      "aud": 8307,
      "cut": 8308,
      "cons": 8309,
      "cott": 8310,
      "function": 8311,
      "gin": 8312,
      "gar": 8313,
      "gment": 8314,
      "hist": 8315,
      "htt": 8316,
      "ij": 8317,
      "last": 8318,
      "lines": 8319,
      "made": 8320,
      "pet": 8321,
      "paring": 8322,
      "riv": 8323,
      "ss": 8324,
      "sen": 8325,
      "ses": 8326,
      "sol": 8327,
      "uing": 8328,
      "upp": 8329,
      "uous": 8330,
      "weed": 8331,
      "yal": 8332,
      "Ġ]": 8333,
      "Ġtight": 8334,
      "Ġtire": 8335,
      "Ġtends": 8336,
      "Ġaf": 8337,
      "ini": 8338,
      "erms": 8339,
      "erobic": 8340,
      "Ġsed": 8341,
      "Ġsour": 8342,
      "Ġsnow": 8343,
      "Ġsouthern": 8344,
      "Ġcust": 8345,
      "Ġcater": 8346,
      "Ġcards": 8347,
      "itory": 8348,
      "Ġwel": 8349,
      "Ġpig": 8350,
      "Ġpipe": 8351,
      "orce": 8352,
      "also": 8353,
      "alian": 8354,
      "Ġfalls": 8355,
      "Ġfilling": 8356,
      "Ġfounder": 8357,
      "Ġbare": 8358,
      "Ġbath": 8359,
      "Ġbored": 8360,
      "Ġinhe": 8361,
      "Ġmand": 8362,
      "Ġmine": 8363,
      "Ġmature": 8364,
      "Ġmixture": 8365,
      "Ġdut": 8366,
      "Ġdried": 8367,
      "arl": 8368,
      "argument": 8369,
      "Ġrear": 8370,
      "ilir": 8371,
      "usable": 8372,
      "Ġlining": 8373,
      "Ġlady": 8374,
      "Ġnose": 8375,
      "Ġnerve": 8376,
      "Ġislands": 8377,
      "iday": 8378,
      "iment": 8379,
      "Ġbeans": 8380,
      "Ġbeings": 8381,
      "Ġyield": 8382,
      "ĠTop": 8383,
      "ĠTreat": 8384,
      "owers": 8385,
      "ulam": 8386,
      "racle": 8387,
      "ĠAp": 8388,
      "ĠAction": 8389,
      "selling": 8390,
      "under": 8391,
      "Ġstead": 8392,
      "ircle": 8393,
      "ĠSat": 8394,
      "Ġorient": 8395,
      "mented": 8396,
      "ĠCr": 8397,
      "ĠCell": 8398,
      "ĠCulture": 8399,
      "ĠClear": 8400,
      "Ġalt": 8401,
      "essions": 8402,
      "thritis": 8403,
      "Ġexha": 8404,
      "ĠPM": 8405,
      "ĠPR": 8406,
      "ĠPac": 8407,
      "ĠTherap": 8408,
      "isted": 8409,
      "Ġchief": 8410,
      "Ġchamber": 8411,
      "ĠMur": 8412,
      "ĠMold": 8413,
      "ĠMars": 8414,
      "ĠMilk": 8415,
      "ĠBitLocker": 8416,
      "oung": 8417,
      "ĠWal": 8418,
      "umps": 8419,
      "Ġneck": 8420,
      "ĠHence": 8421,
      "Ġbyp": 8422,
      "Ġrice": 8423,
      "Ġrivers": 8424,
      "Ġplates": 8425,
      "ĠRet": 8426,
      "ĠRouter": 8427,
      "ĠRouge": 8428,
      "ĠDet": 8429,
      "ĠDire": 8430,
      "ĠDiet": 8431,
      "ĠData": 8432,
      "ĠDacre": 8433,
      "Ġshar": 8434,
      "Ġshut": 8435,
      "Ġshop": 8436,
      "Ġshru": 8437,
      "Ġune": 8438,
      "ĠFOR": 8439,
      "oglyce": 8440,
      "Ġnotes": 8441,
      "Ġnoticed": 8442,
      "Ġworse": 8443,
      "Ġdisplace": 8444,
      "Ġdischar": 8445,
      "plo": 8446,
      "oston": 8447,
      "ĠNote": 8448,
      "ĠNutrition": 8449,
      "Ġcontour": 8450,
      "ĠOA": 8451,
      "ipher": 8452,
      "ĠList": 8453,
      "ĠLower": 8454,
      "ĠLee": 8455,
      "ĠThree": 8456,
      "Ġclients": 8457,
      "Ġclothes": 8458,
      "Ġcomposed": 8459,
      "Ġ21": 8460,
      "ĠUC": 8461,
      "Ġtech": 8462,
      "Ġpermit": 8463,
      "Ġjet": 8464,
      "Ġjump": 8465,
      "indful": 8466,
      "Ġtrips": 8467,
      "Ġcommemor": 8468,
      "Ġtrace": 8469,
      "apel": 8470,
      "Ġfeat": 8471,
      "Ġunderm": 8472,
      "Ġdescription": 8473,
      "ĠStart": 8474,
      "Ġmoderate": 8475,
      "Ġrelation": 8476,
      "Ġreliability": 8477,
      "ubs": 8478,
      "Ġpersu": 8479,
      "ova": 8480,
      "Ġrail": 8481,
      "ĠVict": 8482,
      "ĠChic": 8483,
      "ĠChild": 8484,
      "Ġobl": 8485,
      "Ġtransformation": 8486,
      "Ġmeticul": 8487,
      "Ġremoving": 8488,
      "ropical": 8489,
      "Ġbuying": 8490,
      "inson": 8491,
      "Ġinstalled": 8492,
      "Ġevening": 8493,
      "Ġexamination": 8494,
      "Ġcounty": 8495,
      "Ġ1980": 8496,
      "Ġsecret": 8497,
      "Ġsolving": 8498,
      "Ġowner": 8499,
      "Ġresemb": 8500,
      "Ġchem": 8501,
      "ceptible": 8502,
      "Ġminute": 8503,
      "Ġplanned": 8504,
      "Ġtempor": 8505,
      "Ġcentim": 8506,
      "Ġ2014": 8507,
      "Ġmonu": 8508,
      "Ġbasics": 8509,
      "Ġcurrency": 8510,
      "Ġmemor": 8511,
      "Ġslides": 8512,
      "Ġanticip": 8513,
      "Ġspecifications": 8514,
      "Ġgovernor": 8515,
      "thening": 8516,
      "Ġpassion": 8517,
      "Ġcreatures": 8518,
      "Ġplacement": 8519,
      "Ġimprovement": 8520,
      "Ġbreach": 8521,
      "Ġbreaks": 8522,
      "Ġcontrovers": 8523,
      "Ġstudying": 8524,
      "Ġencounter": 8525,
      "Ġsitting": 8526,
      "Ġretina": 8527,
      "Ġstatements": 8528,
      "Ġcalf": 8529,
      "Ġcalm": 8530,
      "Ġcalories": 8531,
      "Ġbranc": 8532,
      "ĠGenes": 8533,
      "airy": 8534,
      "Ġconsideration": 8535,
      "Ġconsiderations": 8536,
      "Ġcorrel": 8537,
      "Ġforensic": 8538,
      "iciencies": 8539,
      "Ġputs": 8540,
      "cribed": 8541,
      "Ġoperated": 8542,
      "annel": 8543,
      "ĠCollect": 8544,
      "ĠColumb": 8545,
      "Ġfaced": 8546,
      "ĠNews": 8547,
      "ĠConc": 8548,
      "ĠOrig": 8549,
      "Ġcommunications": 8550,
      "Ġlosses": 8551,
      "Ġenhances": 8552,
      "Ġharmony": 8553,
      "ĠGoals": 8554,
      "ĠGoogle": 8555,
      "ographical": 8556,
      "Ġabsorption": 8557,
      "Ġgaining": 8558,
      "Ġcontinuing": 8559,
      "Ġbreathing": 8560,
      "ĠDoppler": 8561,
      "Ġfrequent": 8562,
      "Ġ2008": 8563,
      "ERT": 8564,
      "ĠChristopher": 8565,
      "Ġobservances": 8566,
      "Ġmagnetic": 8567,
      "Ġlifetime": 8568,
      "Ġcaptivating": 8569,
      "Ġenjoyed": 8570,
      "Ġselecting": 8571,
      "Ġexpressions": 8572,
      "Ġsmoking": 8573,
      "ĠAccount": 8574,
      "Ġexperimental": 8575,
      "Ġpriority": 8576,
      "Ġburden": 8577,
      "Ġprecision": 8578,
      "Ġcelebrated": 8579,
      "Ġdynam": 8580,
      "Ġexcav": 8581,
      "Ġphoto": 8582,
      "Ġadaptation": 8583,
      "Ġsecurely": 8584,
      "Ġurgent": 8585,
      "ĠSDGs": 8586,
      "ĠPerformance": 8587,
      "Ġevaluated": 8588,
      "hemistry": 8589,
      "Ġpoorly": 8590,
      "Ġprediction": 8591,
      "Ġsaliva": 8592,
      "Ġrainbow": 8593,
      "Ġillustration": 8594,
      "ĠAgreement": 8595,
      "Ġweakness": 8596,
      "Ġdemonstrates": 8597,
      "Ġdefinition": 8598,
      "Ġsuspect": 8599,
      "Ġestablishing": 8600,
      "Ġpetro": 8601,
      "Ġhypothes": 8602,
      "okus": 8603,
      "Ġhttp": 8604,
      "Ġthrive": 8605,
      "ĠSunflower": 8606,
      "ĠElectrical": 8607,
      "ĠEgyptian": 8608,
      "Ġhonest": 8609,
      "Ġquantum": 8610,
      "ĠSimilarly": 8611,
      "ĠAvail": 8612,
      "ĠMoreover": 8613,
      "Ġdimensions": 8614,
      "ĠIII": 8615,
      "ĠCheck": 8616,
      "Ġrotation": 8617,
      "Ġbutterfly": 8618,
      "ĠPlayStation": 8619,
      "Ġbelonging": 8620,
      "Ġconstructed": 8621,
      "ĠEthan": 8622,
      "Ġhormone": 8623,
      "ĠBrazilian": 8624,
      "Ġevolved": 8625,
      "Ġbags": 8626,
      "ĠGermany": 8627,
      "Ġhyperhidrosis": 8628,
      "Ġfrozen": 8629,
      "Ġguarantee": 8630,
      "ĠAutom": 8631,
      "Ġopinions": 8632,
      "Ġbrowser": 8633,
      "Ġbrowsing": 8634,
      "Ġdisadvantages": 8635,
      "ĠLabs": 8636,
      "Ġconcluded": 8637,
      "Ġpenet": 8638,
      "ĠForeign": 8639,
      "Ġmistakes": 8640,
      "eteenth": 8641,
      "Ġisolation": 8642,
      "Ġnerves": 8643,
      "ĠOlympics": 8644,
      "Ġtackle": 8645,
      "Ġsinus": 8646,
      "ĠSensor": 8647,
      "Ġsodium": 8648,
      "Ġstriking": 8649,
      "abulary": 8650,
      "Ġunlikely": 8651,
      "Ġofficer": 8652,
      "Ġexplanation": 8653,
      "Ġrestrictions": 8654,
      "Ġsacr": 8655,
      "Ġspectrum": 8656,
      "Ġacademic": 8657,
      "ĠHistorical": 8658,
      "Ġpedest": 8659,
      "Ġpoisoning": 8660,
      "Ġpupils": 8661,
      "Ġenemy": 8662,
      "Ġrepetitive": 8663,
      "ĠFrancisco": 8664,
      "Ġchert": 8665,
      "Ġdisplays": 8666,
      "apdragons": 8667,
      "Ð¾Ð": 8668,
      "Ġnormally": 8669,
      "Ġlaunched": 8670,
      "Ġnonspe": 8671,
      "ĠSomali": 8672,
      "Ġoverwhel": 8673,
      "Ġphrase": 8674,
      "Ġbenchmark": 8675,
      "ilirubin": 8676,
      "Ġexhaust": 8677,
      "ĠPacific": 8678,
      "oglycemia": 8679,
      "%)": 8680,
      ".âĢĻ": 8681,
      "34": 8682,
      "45": 8683,
      "Don": 8684,
      "Eff": 8685,
      "Each": 8686,
      "Fact": 8687,
      "Iran": 8688,
      "Like": 8689,
      "ME": 8690,
      "Me": 8691,
      "MENT": 8692,
      "New": 8693,
      "PO": 8694,
      "Pr": 8695,
      "Pakistan": 8696,
      "Sim": 8697,
      "Sec": 8698,
      "Te": 8699,
      "Take": 8700,
      "TER": 8701,
      "Trans": 8702,
      "View": 8703,
      "aper": 8704,
      "aired": 8705,
      "but": 8706,
      "dec": 8707,
      "eenth": 8708,
      "fix": 8709,
      "hus": 8710,
      "hire": 8711,
      "hanced": 8712,
      "iro": 8713,
      "iating": 8714,
      "lvan": 8715,
      "mal": 8716,
      "mitt": 8717,
      "matic": 8718,
      "nas": 8719,
      "pat": 8720,
      "post": 8721,
      "riger": 8722,
      "sk": 8723,
      "train": 8724,
      "trans": 8725,
      "uk": 8726,
      "vin": 8727,
      "yd": 8728,
      "Å«": 8729,
      "âģ": 8730,
      "Ġ@": 8731,
      "Ġid": 8732,
      "Ġtun": 8733,
      "Ġaqu": 8734,
      "Ġaquarium": 8735,
      "inery": 8736,
      "onavirus": 8737,
      "Ġtheories": 8738,
      "erb": 8739,
      "erior": 8740,
      "eramic": 8741,
      "atical": 8742,
      "Ġsale": 8743,
      "Ġsessions": 8744,
      "Ġcord": 8745,
      "Ġcert": 8746,
      "Ġcues": 8747,
      "itus": 8748,
      "iture": 8749,
      "itary": 8750,
      "isp": 8751,
      "Ġwestern": 8752,
      "Ġpill": 8753,
      "Ġports": 8754,
      "Ġpicking": 8755,
      "alysis": 8756,
      "Ġfly": 8757,
      "Ġfract": 8758,
      "Ġbid": 8759,
      "Ġbust": 8760,
      "Ġment": 8761,
      "Ġmig": 8762,
      "icate": 8763,
      "icular": 8764,
      "Ġdough": 8765,
      "Ġdual": 8766,
      "Ġdating": 8767,
      "Ġdates": 8768,
      "Ġdict": 8769,
      "Ġduration": 8770,
      "leb": 8771,
      "asant": 8772,
      "Ġthistle": 8773,
      "Ġrecept": 8774,
      "Ġreaches": 8775,
      "Ġreusable": 8776,
      "omics": 8777,
      "ette": 8778,
      "Ġlon": 8779,
      "Ġlacking": 8780,
      "Ġnine": 8781,
      "Ġgone": 8782,
      "Ġgift": 8783,
      "Ġgrey": 8784,
      "idian": 8785,
      "Ġyes": 8786,
      "ĠTw": 8787,
      "ĠTower": 8788,
      "ĠTales": 8789,
      "owered": 8790,
      "urrency": 8791,
      "chworth": 8792,
      "igious": 8793,
      "security": 8794,
      "verages": 8795,
      "Ġstamp": 8796,
      "Ġstiff": 8797,
      "aying": 8798,
      "ĠSl": 8799,
      "ĠSil": 8800,
      "ĠSqu": 8801,
      "ĠSud": 8802,
      "ĠSource": 8803,
      "ĠSeveral": 8804,
      "Ġascorbic": 8805,
      "Ġconsole": 8806,
      "Ġhem": 8807,
      "Ġhence": 8808,
      "Ġwithd": 8809,
      "ĠCE": 8810,
      "ĠCustom": 8811,
      "ĠCivil": 8812,
      "ĠCockatiels": 8813,
      "Ġalive": 8814,
      "adder": 8815,
      "abs": 8816,
      "abil": 8817,
      "ĠPort": 8818,
      "ĠPass": 8819,
      "illion": 8820,
      "istant": 8821,
      "istance": 8822,
      "Ġcomments": 8823,
      "Ġchips": 8824,
      "Ġusual": 8825,
      "Ġweeds": 8826,
      "ĠBetween": 8827,
      "ĠBorter": 8828,
      "osion": 8829,
      "Ġenerg": 8830,
      "ĠWars": 8831,
      "ĠWales": 8832,
      "ĠWMS": 8833,
      "ema": 8834,
      "emp": 8835,
      "emics": 8836,
      "ĠHen": 8837,
      "Ġrough": 8838,
      "Ġrings": 8839,
      "ighter": 8840,
      "Ġ(âĢľ": 8841,
      "ĠED": 8842,
      "ĠExt": 8843,
      "ĠRiverside": 8844,
      "Ġsharding": 8845,
      "Ġshorter": 8846,
      "Ġuncover": 8847,
      "ĠFurther": 8848,
      "Ġwashing": 8849,
      "izza": 8850,
      "Ġdish": 8851,
      "Ġdisin": 8852,
      "Ġdisag": 8853,
      "Ġinclusion": 8854,
      "ignity": 8855,
      "ĠName": 8856,
      "Ġcontra": 8857,
      "ĠOcean": 8858,
      "ĠLI": 8859,
      "ĠThames": 8860,
      "Ġcliffs": 8861,
      "Ġcloning": 8862,
      "ĠkW": 8863,
      "Ġket": 8864,
      "Ġarms": 8865,
      "Ġarthritis": 8866,
      "enda": 8867,
      "Ġmeets": 8868,
      "forming": 8869,
      "formed": 8870,
      "Ġcaps": 8871,
      "ups": 8872,
      "Ġscul": 8873,
      "Ġtrains": 8874,
      "Ġtrapped": 8875,
      "Ġpeers": 8876,
      "Ġovercome": 8877,
      "Ġupgrading": 8878,
      "Ġpreferences": 8879,
      "tegr": 8880,
      "ĠJames": 8881,
      "Ġundergo": 8882,
      "erves": 8883,
      "Ġagreed": 8884,
      "Ġactors": 8885,
      "Ġmodules": 8886,
      "Ġnewly": 8887,
      "Ġrelating": 8888,
      "Ġstudied": 8889,
      "Ġinvented": 8890,
      "oves": 8891,
      "ondroit": 8892,
      "Ġraces": 8893,
      "Ġinfant": 8894,
      "Ġinfants": 8895,
      "ĠVEX": 8896,
      "ontinence": 8897,
      "Ġshouldn": 8898,
      "Ġworkplace": 8899,
      "Ġtwelve": 8900,
      "Ġcoat": 8901,
      "Ġexped": 8902,
      "Ġexpansion": 8903,
      "Ġhighlights": 8904,
      "angered": 8905,
      "Ġdiag": 8906,
      "Ġwhereas": 8907,
      "Ġreminder": 8908,
      "Ġartistic": 8909,
      "Ġpreschool": 8910,
      "Ġgenerator": 8911,
      "Ġdetected": 8912,
      "Ġeffectiveness": 8913,
      "Ġ3309918682": 8914,
      "Ġentry": 8915,
      "Ġexamine": 8916,
      "Ġ1970": 8917,
      "Ġflash": 8918,
      "Ġclassical": 8919,
      "Ġmusc": 8920,
      "Ġmush": 8921,
      "Ġgland": 8922,
      "Ġvalley": 8923,
      "Ġherself": 8924,
      "ĠHeaters": 8925,
      "archy": 8926,
      "Ġlock": 8927,
      "Ġdesigners": 8928,
      "Ġdefines": 8929,
      "Ġrefractory": 8930,
      "Ġaccessibility": 8931,
      "Through": 8932,
      "Ġsubmit": 8933,
      "Ġsubsequ": 8934,
      "Ġaffection": 8935,
      "Ġculturally": 8936,
      "Ġdistant": 8937,
      "Ġendless": 8938,
      "Ġbuilds": 8939,
      "Ġoptic": 8940,
      "Ġcurve": 8941,
      "ĠProper": 8942,
      "Ġessence": 8943,
      "Ġantimicrobial": 8944,
      "Ġapproved": 8945,
      "Ġpreventive": 8946,
      "Ġequival": 8947,
      "Ġ600": 8948,
      "Ġgravity": 8949,
      "hydr": 8950,
      "parent": 8951,
      "Ġbreaches": 8952,
      "Ant": 8953,
      "Ġengineered": 8954,
      "Ġtherapists": 8955,
      "Ġconfident": 8956,
      "Ġretrie": 8957,
      "ynthesis": 8958,
      "Ġmatrix": 8959,
      "Ġrequirement": 8960,
      "Ġpresentations": 8961,
      "Ġseverity": 8962,
      "Ġkeyword": 8963,
      "ĠOntar": 8964,
      "Ġinfluential": 8965,
      "Ġembrace": 8966,
      "ĠTeac": 8967,
      "Ġfibrotic": 8968,
      "axon": 8969,
      "Ġmarkers": 8970,
      "Ġoccurring": 8971,
      "Ġoperates": 8972,
      "Ġminds": 8973,
      "spapers": 8974,
      "Ġsensor": 8975,
      "Ġsensors": 8976,
      "clip": 8977,
      "sylvan": 8978,
      "letter": 8979,
      "Ġcathedral": 8980,
      "Ġcharacteristic": 8981,
      "Ġuntreated": 8982,
      "itamin": 8983,
      "anguage": 8984,
      "attle": 8985,
      "Ġ75": 8986,
      "Ġcyto": 8987,
      "Ġsinger": 8988,
      "ĠConnect": 8989,
      "Ġsynt": 8990,
      "Ġalongside": 8991,
      "Ġintroduces": 8992,
      "Ġtaxes": 8993,
      "Ġdiagnose": 8994,
      "Ġdiagnostic": 8995,
      "REE": 8996,
      "Ġindicator": 8997,
      "Ġbelieves": 8998,
      "ĠCoal": 8999,
      "ĠUsually": 9000,
      "Äģn": 9001,
      "ĠBlue": 9002,
      "Ġmeetings": 9003,
      "Ġcalculation": 9004,
      "flu": 9005,
      "Ġreaching": 9006,
      "Ġreflected": 9007,
      "Ġdescribes": 9008,
      "ĠAPIS": 9009,
      "ĠSchools": 9010,
      "Ġtargeting": 9011,
      "ĠSucc": 9012,
      "ĠBeh": 9013,
      "Ġmechanical": 9014,
      "Ġsmoke": 9015,
      "ASAN": 9016,
      "Ġspreading": 9017,
      "ATE": 9018,
      "Ġrespectively": 9019,
      "chemical": 9020,
      "Ġmachinery": 9021,
      "Ġmicrobes": 9022,
      "Ġsugars": 9023,
      "ĠLeg": 9024,
      "Ġantibiotics": 9025,
      "Ġcampaigns": 9026,
      "Ġtissues": 9027,
      "Ġextraord": 9028,
      "Ġwaters": 9029,
      "Ġwatching": 9030,
      "Ġevaluate": 9031,
      "Ġsubstit": 9032,
      "Ġappliances": 9033,
      "Ġutilize": 9034,
      "Ġutilizing": 9035,
      "Ġannually": 9036,
      "Ġrainforest": 9037,
      "Ġcorner": 9038,
      "Ġliterally": 9039,
      "Ġanswers": 9040,
      "ĠHerit": 9041,
      "Ġinspiration": 9042,
      "Ġcompetence": 9043,
      "Ġcompetition": 9044,
      "ĠPartnership": 9045,
      "Ġpeaceful": 9046,
      "Ġdefinitely": 9047,
      "Ġtowns": 9048,
      "Ġordered": 9049,
      "Ġshaping": 9050,
      "Ġhypoglycemia": 9051,
      "ĠBridge": 9052,
      "Ġspecifies": 9053,
      "Ġfilter": 9054,
      "Ġneutrality": 9055,
      "doors": 9056,
      "Ġquantities": 9057,
      "Ġsorted": 9058,
      "Ġstruggles": 9059,
      "Ġdysmorphia": 9060,
      "Ġthermodilution": 9061,
      "Ġmissed": 9062,
      "Ġfestivals": 9063,
      "ĠImport": 9064,
      "ĠImpact": 9065,
      "ĠIntroduction": 9066,
      "Ġodds": 9067,
      "Ġmanipulation": 9068,
      "ĠParis": 9069,
      "Ġconvenience": 9070,
      "Ġsettle": 9071,
      "TEM": 9072,
      "ĠNeuro": 9073,
      "Ġprescribe": 9074,
      "Ġradicals": 9075,
      "Ġtrend": 9076,
      "Ġtomato": 9077,
      "ĠYears": 9078,
      "Ġcoordinates": 9079,
      "Art": 9080,
      "Ġboundaries": 9081,
      "Ġgastro": 9082,
      "Ġprolif": 9083,
      "asticity": 9084,
      "Ġpreferred": 9085,
      "ĠVermont": 9086,
      "Ġabnormalities": 9087,
      "Ġdissol": 9088,
      "Ġbasketball": 9089,
      "Ġvillage": 9090,
      "Ġtribes": 9091,
      "Ġmystery": 9092,
      "Ġfulfill": 9093,
      "Ġfetus": 9094,
      "Ġdialogue": 9095,
      "Ġcompatibility": 9096,
      "Ġjudgment": 9097,
      "Ġshelter": 9098,
      "Ġnervous": 9099,
      "Ġgenotyping": 9100,
      "ĠCollabor": 9101,
      "Ġdigestive": 9102,
      "Ġvessels": 9103,
      "Ġcomparison": 9104,
      "iblical": 9105,
      "ĠRemember": 9106,
      "Ġauthentication": 9107,
      "Ġionic": 9108,
      "Ġgradually": 9109,
      "Ġphilosophy": 9110,
      "Ġacknowled": 9111,
[...]
